unsigned char model_data_tflite[] = {
  0x14, 0x00, 0x00, 0x00, 0x54, 0x46, 0x4c, 0x33, 0x00, 0x00, 0x00, 0x00,
  0x00, 0x00, 0x00, 0x00, 0x00, 0x00, 0x00, 0x00, 0x56, 0xe0, 0xff, 0xff,
  0x03, 0x00, 0x00, 0x00, 0x54, 0x2b, 0x00, 0x00, 0x94, 0x1f, 0x00, 0x00,
  0x7c, 0x1f, 0x00, 0x00, 0x04, 0x00, 0x00, 0x00, 0x0f, 0x00, 0x00, 0x00,
  0x6c, 0x1f, 0x00, 0x00, 0x58, 0x1f, 0x00, 0x00, 0x1c, 0x1f, 0x00, 0x00,
  0xf8, 0x1e, 0x00, 0x00, 0x84, 0x02, 0x00, 0x00, 0x30, 0x02, 0x00, 0x00,
  0xdc, 0x00, 0x00, 0x00, 0xa8, 0x00, 0x00, 0x00, 0x74, 0x00, 0x00, 0x00,
  0x68, 0x00, 0x00, 0x00, 0x54, 0x00, 0x00, 0x00, 0x40, 0x00, 0x00, 0x00,
  0x2c, 0x00, 0x00, 0x00, 0x18, 0x00, 0x00, 0x00, 0x04, 0x00, 0x00, 0x00,
  0x84, 0xd6, 0xff, 0xff, 0x00, 0x00, 0x00, 0x00, 0x00, 0x00, 0x00, 0x00,
  0x00, 0x00, 0x00, 0x00, 0x94, 0xd6, 0xff, 0xff, 0x00, 0x00, 0x00, 0x00,
  0x00, 0x00, 0x00, 0x00, 0x00, 0x00, 0x00, 0x00, 0xa4, 0xd6, 0xff, 0xff,
  0x00, 0x00, 0x00, 0x00, 0x00, 0x00, 0x00, 0x00, 0x00, 0x00, 0x00, 0x00,
  0xb4, 0xd6, 0xff, 0xff, 0x00, 0x00, 0x00, 0x00, 0x00, 0x00, 0x00, 0x00,
  0x00, 0x00, 0x00, 0x00, 0xc4, 0xd6, 0xff, 0xff, 0x00, 0x00, 0x00, 0x00,
  0x00, 0x00, 0x00, 0x00, 0x00, 0x00, 0x00, 0x00, 0xd4, 0xd6, 0xff, 0xff,
  0x00, 0x00, 0x00, 0x00, 0x76, 0xe0, 0xff, 0xff, 0x04, 0x00, 0x00, 0x00,
  0x18, 0x00, 0x00, 0x00, 0xaf, 0x04, 0x00, 0x00, 0xc8, 0xfc, 0xff, 0xff,
  0x7a, 0x0b, 0x00, 0x00, 0x64, 0x02, 0x00, 0x00, 0x53, 0x04, 0x00, 0x00,
  0xe7, 0xfc, 0xff, 0xff, 0x00, 0x00, 0x00, 0x00, 0x00, 0x00, 0x00, 0x00,
  0x00, 0x00, 0x00, 0x00, 0xa6, 0xe0, 0xff, 0xff, 0x04, 0x00, 0x00, 0x00,
  0x18, 0x00, 0x00, 0x00, 0x06, 0x02, 0x00, 0x00, 0x99, 0xfe, 0xff, 0xff,
  0x61, 0xfe, 0xff, 0xff, 0xf5, 0xfe, 0xff, 0xff, 0xdd, 0x18, 0x00, 0x00,
  0x3f, 0xff, 0xff, 0xff, 0x00, 0x00, 0x00, 0x00, 0x00, 0x00, 0x00, 0x00,
  0x00, 0x00, 0x00, 0x00, 0xd6, 0xe0, 0xff, 0xff, 0x04, 0x00, 0x00, 0x00,
  0x44, 0x01, 0x00, 0x00, 0x43, 0xf6, 0xf4, 0x0c, 0x05, 0x18, 0x60, 0x01,
  0xd4, 0xe9, 0x37, 0x00, 0x7f, 0x1e, 0x15, 0x20, 0xeb, 0x1a, 0x17, 0x22,
  0x03, 0x13, 0xd4, 0xb1, 0x0b, 0x11, 0xea, 0x07, 0xed, 0xb7, 0x14, 0xf5,
  0x06, 0x07, 0xe5, 0x22, 0x4a, 0xf1, 0x09, 0x1f, 0xb3, 0x85, 0x22, 0x19,
  0x04, 0x14, 0xe3, 0x91, 0xa0, 0xd4, 0xbe, 0xe3, 0xe2, 0xe6, 0x7f, 0xf0,
  0x1e, 0x02, 0x40, 0x04, 0x00, 0xf9, 0x0b, 0xfe, 0xc2, 0xbe, 0x85, 0x05,
  0x0e, 0x0a, 0xdf, 0xfd, 0x62, 0x08, 0x01, 0xdb, 0x11, 0xd9, 0xc8, 0xed,
  0x02, 0xe2, 0xdb, 0xf5, 0xc3, 0x06, 0x1a, 0x0f, 0x0f, 0x35, 0x32, 0x2d,
  0x04, 0xff, 0xfe, 0x19, 0xc2, 0x18, 0x0e, 0x07, 0xf7, 0x3f, 0xf6, 0x0f,
  0x19, 0xeb, 0x0c, 0x21, 0x52, 0xe6, 0x08, 0x17, 0xc2, 0x82, 0x1e, 0x27,
  0x2b, 0x3d, 0xe1, 0xef, 0xda, 0x31, 0x39, 0x27, 0x37, 0x0e, 0xea, 0xe4,
  0xe5, 0xe3, 0x26, 0xda, 0xfa, 0xe9, 0x11, 0x08, 0xe3, 0xd2, 0xd5, 0x29,
  0xf5, 0x1d, 0xfd, 0xe9, 0x12, 0x04, 0xd8, 0xed, 0x4e, 0x7f, 0x2a, 0xef,
  0xcd, 0xd0, 0x7d, 0x3f, 0x0a, 0xc0, 0xc9, 0xc6, 0xf9, 0xbb, 0x20, 0xf7,
  0xfe, 0xf8, 0x02, 0xf2, 0xf2, 0x1b, 0x2d, 0x25, 0x33, 0x5d, 0xb8, 0x0d,
  0xfa, 0x11, 0x2c, 0x36, 0xdd, 0xe0, 0xd5, 0xe6, 0xcd, 0xcb, 0x16, 0xee,
  0xf7, 0xf3, 0xf4, 0xfc, 0x10, 0x10, 0xd5, 0xf3, 0x2a, 0x3e, 0xf3, 0x24,
  0x05, 0x12, 0x81, 0x9f, 0xfd, 0x22, 0x01, 0x14, 0xf7, 0x0e, 0xf4, 0x05,
  0xf4, 0xf9, 0x33, 0x1f, 0x1d, 0x23, 0x27, 0x2b, 0xf7, 0x21, 0xe2, 0x1f,
  0x07, 0x29, 0x59, 0x30, 0x40, 0x02, 0xe9, 0xe6, 0x28, 0x0b, 0x1c, 0x08,
  0xe8, 0xf5, 0xf1, 0x0c, 0xc5, 0xf0, 0xcf, 0xfe, 0x0b, 0x9e, 0x0f, 0x08,
  0x13, 0x07, 0xd0, 0xc9, 0xbf, 0xe5, 0x02, 0xe9, 0x35, 0x3c, 0xe6, 0xe1,
  0xe5, 0xe6, 0xf0, 0x8d, 0x31, 0xfa, 0x31, 0x11, 0x81, 0x92, 0x7f, 0xed,
  0xb7, 0xc9, 0x04, 0x22, 0x68, 0xee, 0xfd, 0xd6, 0x05, 0x4b, 0xe2, 0x2f,
  0x43, 0x38, 0x0c, 0x21, 0xe8, 0x0a, 0xed, 0xfc, 0x0c, 0x0e, 0xf7, 0xe9,
  0x06, 0x02, 0x28, 0x74, 0xd0, 0x0c, 0x36, 0x2d, 0xec, 0x23, 0xc4, 0x01,
  0xf0, 0xe1, 0xed, 0x19, 0x2e, 0xdb, 0x0b, 0xf3, 0x16, 0x66, 0xe4, 0x20,
  0x0b, 0x29, 0x24, 0x05, 0x26, 0xe2, 0xff, 0xff, 0x04, 0x00, 0x00, 0x00,
  0x36, 0x00, 0x00, 0x00, 0x81, 0xb5, 0x5b, 0xd6, 0x51, 0x17, 0x29, 0x10,
  0xd5, 0x41, 0xb9, 0xef, 0x3d, 0x4f, 0xd0, 0xef, 0x7f, 0x04, 0xe6, 0x62,
  0x2a, 0x88, 0x68, 0x34, 0x81, 0x1e, 0x5e, 0x5f, 0x78, 0xb1, 0x12, 0x76,
  0x29, 0x00, 0x1c, 0x7f, 0x40, 0xf0, 0xfa, 0x7f, 0xbc, 0xc9, 0x53, 0xb0,
  0xc9, 0x04, 0x2d, 0xd5, 0x27, 0x3b, 0x9f, 0x11, 0x68, 0x81, 0x00, 0x00,
  0x00, 0x00, 0x00, 0x00, 0x00, 0x00, 0x00, 0x00, 0x00, 0x00, 0x00, 0x00,
  0x76, 0xe2, 0xff, 0xff, 0x04, 0x00, 0x00, 0x00, 0x5c, 0x1c, 0x00, 0x00,
  0x0a, 0xee, 0xd9, 0xe5, 0xf2, 0x05, 0x07, 0xfd, 0xeb, 0xe3, 0xfd, 0xf7,
  0xfb, 0x03, 0x08, 0x1d, 0xce, 0xfe, 0xf2, 0xf9, 0x1f, 0xf3, 0x15, 0x01,
  0xfd, 0xf8, 0x03, 0xf6, 0xf8, 0xf2, 0x05, 0xf7, 0xfc, 0xf0, 0x09, 0xef,
  0xff, 0x02, 0x12, 0xfe, 0x0f, 0x09, 0x19, 0x02, 0xf8, 0xf9, 0x20, 0x16,
  0x1a, 0x13, 0xfa, 0x01, 0x1c, 0x25, 0x15, 0x27, 0x1c, 0x1f, 0x28, 0xf4,
  0x1d, 0xee, 0xd3, 0x28, 0x09, 0xea, 0x0f, 0x10, 0xfa, 0xf4, 0xf8, 0x05,
  0xee, 0x07, 0xe2, 0x09, 0xfe, 0xf8, 0x09, 0x03, 0xf2, 0xf7, 0xda, 0xf4,
  0x06, 0xf0, 0x01, 0xfa, 0xf0, 0xff, 0x04, 0xf6, 0x12, 0xf6, 0xf0, 0xf5,
  0xfd, 0x10, 0xfe, 0xfd, 0xf8, 0xf8, 0xfe, 0xef, 0x08, 0xed, 0x11, 0x08,
  0x0b, 0x09, 0xf3, 0xf1, 0xec, 0x0c, 0xf5, 0x13, 0x01, 0xef, 0xff, 0x03,
  0x14, 0x17, 0x06, 0x08, 0xf6, 0x19, 0x0b, 0x02, 0x15, 0x36, 0xff, 0x0f,
  0x02, 0x1b, 0x06, 0x02, 0xe8, 0xfe, 0xf6, 0x02, 0xe9, 0x0a, 0x07, 0xfa,
  0x07, 0x02, 0xfa, 0xf0, 0xf6, 0xf3, 0x09, 0xf7, 0xf3, 0xee, 0xf5, 0xf5,
  0x03, 0xf2, 0x1a, 0xf5, 0xf5, 0xf8, 0x11, 0x06, 0x0d, 0x02, 0x0d, 0x01,
  0x17, 0xfb, 0x13, 0xf4, 0x0e, 0x0a, 0x09, 0x0e, 0x00, 0x05, 0x0e, 0x08,
  0xf0, 0x0a, 0x0a, 0xfc, 0xf9, 0xf7, 0xf1, 0xff, 0x01, 0x01, 0x0b, 0xfb,
  0x09, 0x20, 0x27, 0x10, 0xfe, 0x09, 0x0a, 0x01, 0x19, 0x10, 0x17, 0xfb,
  0xf7, 0x01, 0x0c, 0x03, 0x0b, 0x03, 0x0e, 0x04, 0x11, 0x00, 0xfc, 0xff,
  0x01, 0x06, 0x06, 0xef, 0xf4, 0xf4, 0x04, 0xfc, 0x24, 0xf6, 0xfe, 0xfd,
  0x0f, 0x01, 0xfc, 0xee, 0x0f, 0x00, 0x0b, 0xf9, 0x01, 0x01, 0xfe, 0xff,
  0x04, 0xfc, 0xf5, 0x0a, 0x0c, 0x00, 0xf9, 0x0c, 0x02, 0xfa, 0x01, 0x06,
  0xe7, 0xfe, 0xf5, 0x0d, 0xfd, 0xfa, 0xfc, 0xed, 0x13, 0xfc, 0x01, 0xf2,
  0xf3, 0x09, 0x11, 0x0c, 0x04, 0xfd, 0xfc, 0x04, 0x13, 0x0b, 0x13, 0x00,
  0xfe, 0x04, 0x10, 0x0e, 0x01, 0xff, 0xf7, 0x03, 0x08, 0x0b, 0x04, 0xfb,
  0x08, 0xf7, 0x0a, 0xeb, 0x01, 0xfd, 0x04, 0x0d, 0x01, 0xfd, 0x12, 0xfb,
  0x04, 0x05, 0xfe, 0x07, 0xfc, 0xfd, 0xfd, 0x05, 0x12, 0x03, 0x08, 0xf8,
  0x03, 0x0a, 0xff, 0xfa, 0x11, 0x13, 0xca, 0x0c, 0x0f, 0x01, 0x0d, 0x12,
  0xf4, 0xd9, 0xf9, 0xf8, 0x0d, 0xdd, 0xf5, 0x01, 0x10, 0x06, 0xf3, 0x05,
  0xd3, 0xf8, 0x09, 0x01, 0x0e, 0x05, 0x01, 0x00, 0x07, 0x08, 0xfe, 0x07,
  0xf7, 0xfe, 0x02, 0x0d, 0xfe, 0x0a, 0xfd, 0xfc, 0x03, 0xe4, 0xfe, 0xfe,
  0x0a, 0x05, 0xf4, 0x01, 0xfe, 0xf1, 0xff, 0xff, 0xf6, 0x08, 0xf5, 0x04,
  0xf7, 0xfe, 0x14, 0x05, 0x26, 0x01, 0xe9, 0x05, 0xfa, 0xf1, 0x1e, 0x10,
  0xc6, 0x11, 0x08, 0xfd, 0x0a, 0x12, 0xef, 0xea, 0x07, 0xeb, 0x11, 0xe6,
  0xcf, 0xee, 0x0c, 0x01, 0x08, 0x03, 0xe4, 0x01, 0xfc, 0x0a, 0x14, 0x02,
  0x04, 0x07, 0xfa, 0x02, 0x04, 0x07, 0xfe, 0xfa, 0x09, 0x0f, 0xea, 0x10,
  0x06, 0x01, 0x0f, 0xf2, 0x00, 0x01, 0x06, 0x12, 0x02, 0x03, 0xed, 0xf4,
  0x0b, 0xf2, 0xfa, 0x08, 0xf4, 0x0f, 0xfe, 0x00, 0xfd, 0x0a, 0x02, 0x03,
  0x05, 0x03, 0xf0, 0xf6, 0x02, 0x0c, 0xd4, 0x0c, 0x0d, 0x01, 0xfb, 0x11,
  0xe6, 0xfc, 0x10, 0xfb, 0x0d, 0xe9, 0xcd, 0xec, 0xf0, 0x08, 0x13, 0x04,
  0xee, 0x05, 0xfb, 0x15, 0x08, 0x0a, 0xf5, 0x08, 0xfe, 0xf3, 0x02, 0x05,
  0xfd, 0xf9, 0x08, 0x0a, 0xf5, 0x02, 0x06, 0x00, 0x02, 0xfe, 0x0b, 0xf0,
  0x09, 0x04, 0x10, 0xf3, 0x07, 0xf7, 0x06, 0xf1, 0x12, 0x04, 0xf6, 0x08,
  0xf0, 0xfc, 0xf6, 0x0b, 0xec, 0x00, 0xff, 0x04, 0xf0, 0x03, 0xec, 0xfb,
  0xeb, 0xf8, 0xf9, 0x02, 0xf7, 0x05, 0xc7, 0xfe, 0xfd, 0xf9, 0x01, 0xdf,
  0xdf, 0xf1, 0xfd, 0x05, 0xff, 0x00, 0xe7, 0x06, 0xfb, 0x06, 0x01, 0x10,
  0x0d, 0x06, 0xfc, 0xf5, 0xf1, 0x03, 0x03, 0x01, 0xff, 0x07, 0x00, 0xf0,
  0x01, 0xff, 0x01, 0x13, 0xfe, 0xe8, 0x06, 0xfd, 0x0b, 0xf8, 0x06, 0xe7,
  0x00, 0xfd, 0x0e, 0x02, 0xf2, 0x06, 0x05, 0x09, 0x04, 0x09, 0xea, 0xf3,
  0xf3, 0xe9, 0x03, 0xfc, 0xda, 0xed, 0xf7, 0xe8, 0xf1, 0xfb, 0xfb, 0xfb,
  0xcc, 0x01, 0x07, 0xec, 0xf8, 0xf1, 0xd3, 0xef, 0x05, 0x04, 0xf6, 0x04,
  0xe7, 0xf3, 0x08, 0x01, 0x0f, 0x08, 0x01, 0x00, 0xf2, 0xf4, 0xe8, 0xfb,
  0x02, 0x02, 0xec, 0xfd, 0xfa, 0xea, 0xfd, 0x06, 0x03, 0x14, 0xff, 0xe9,
  0x01, 0xf7, 0x05, 0xfc, 0x02, 0xef, 0xf5, 0x01, 0x10, 0x01, 0xf9, 0x01,
  0xfa, 0x0d, 0x14, 0xfe, 0xf0, 0xfe, 0x07, 0xf2, 0x0b, 0x03, 0xf4, 0xdf,
  0x01, 0xd8, 0xfd, 0xfd, 0x05, 0xea, 0xc0, 0xfe, 0x0a, 0xdc, 0x07, 0xea,
  0xcc, 0xe9, 0xf9, 0xdc, 0xfe, 0x04, 0xf2, 0xf7, 0xee, 0xf2, 0x08, 0x0e,
  0x07, 0x05, 0xfd, 0xfa, 0xe3, 0xf7, 0x06, 0xff, 0xe9, 0xfb, 0xf3, 0xd9,
  0x03, 0x02, 0xf7, 0x02, 0x05, 0xdf, 0x0f, 0xef, 0xf6, 0x0c, 0x0b, 0xd9,
  0x18, 0xf6, 0xfb, 0x13, 0x10, 0xee, 0x0b, 0xfe, 0x09, 0x00, 0x08, 0xea,
  0x00, 0xeb, 0xcc, 0x03, 0x03, 0xd9, 0x13, 0xd0, 0xeb, 0x00, 0xf8, 0xcb,
  0xd3, 0xf8, 0x14, 0xd5, 0xff, 0xd7, 0x07, 0xff, 0xff, 0x0b, 0x04, 0x1d,
  0xf5, 0x36, 0xfe, 0x2a, 0xfd, 0x09, 0x05, 0x18, 0x09, 0x13, 0x0f, 0x0c,
  0xf0, 0x12, 0x24, 0x06, 0x06, 0x05, 0x0f, 0x21, 0xe9, 0x0c, 0xff, 0xfb,
  0xf8, 0x0b, 0xf3, 0x1f, 0xf0, 0xe5, 0xf4, 0x16, 0xf6, 0x19, 0x0c, 0xec,
  0xe3, 0xea, 0x09, 0x1b, 0xff, 0xef, 0xfa, 0x1c, 0xd1, 0x1d, 0x1f, 0xfa,
  0x04, 0xfb, 0xd4, 0x1a, 0x16, 0xed, 0xeb, 0xe0, 0xf8, 0x05, 0x1e, 0xec,
  0xe2, 0x10, 0xf7, 0x0a, 0xfd, 0x08, 0xf5, 0x0b, 0xf7, 0x0e, 0xff, 0x06,
  0x0e, 0xf6, 0xfb, 0x00, 0x0a, 0x0a, 0x08, 0x03, 0x00, 0xf6, 0x18, 0xff,
  0x1c, 0x16, 0xe9, 0xfe, 0x14, 0x01, 0x1a, 0x12, 0xf5, 0x0a, 0xf2, 0x01,
  0x08, 0x19, 0x04, 0x11, 0xf9, 0xf5, 0xf4, 0xf5, 0xfd, 0x08, 0x02, 0xfb,
  0xf0, 0x11, 0x08, 0x0c, 0x0f, 0xf4, 0xf3, 0x08, 0xdb, 0x0d, 0x0f, 0xde,
  0xf2, 0xea, 0xe8, 0x01, 0x07, 0xfb, 0xf5, 0xfa, 0xf8, 0x06, 0xf9, 0x03,
  0xf5, 0x08, 0x00, 0x09, 0x06, 0x02, 0x01, 0x02, 0xfa, 0xfe, 0x10, 0x09,
  0x18, 0x09, 0xef, 0xfb, 0x01, 0xfd, 0x13, 0x16, 0xef, 0x05, 0x02, 0xfe,
  0x14, 0x10, 0x11, 0x0b, 0xf5, 0xf8, 0xf6, 0x0d, 0xf4, 0x08, 0xfd, 0xeb,
  0xe2, 0xf3, 0x0c, 0x06, 0xe8, 0xef, 0x0c, 0x0b, 0xfb, 0x04, 0x10, 0xfd,
  0xf3, 0x18, 0xf1, 0x02, 0xfc, 0xe3, 0xe0, 0xe6, 0xe5, 0xf9, 0x09, 0xf8,
  0x00, 0xfd, 0xf9, 0x0f, 0xfe, 0x05, 0xed, 0x08, 0xfb, 0x02, 0xfb, 0x06,
  0x07, 0x06, 0x02, 0x09, 0xff, 0x05, 0x11, 0x02, 0x02, 0xf7, 0xe2, 0xf5,
  0x0e, 0x06, 0xe8, 0xe8, 0xf9, 0xf6, 0x1c, 0xf3, 0x0a, 0x08, 0xfc, 0xfe,
  0x0b, 0x01, 0xf1, 0x02, 0x03, 0xf7, 0xfc, 0xf6, 0x07, 0x04, 0x02, 0xfc,
  0x11, 0x09, 0xec, 0xf9, 0x29, 0x05, 0x04, 0x02, 0xcc, 0x08, 0x04, 0xf8,
  0xd2, 0xeb, 0xf3, 0x03, 0xfb, 0xf6, 0xfd, 0x05, 0xf3, 0x07, 0x03, 0xfb,
  0xe5, 0xfd, 0xf5, 0x01, 0xf6, 0x04, 0x0c, 0x01, 0x02, 0x18, 0xfb, 0x04,
  0x04, 0x08, 0x07, 0xf9, 0xf4, 0xfc, 0x0d, 0x00, 0xf8, 0xf6, 0xfe, 0xf5,
  0x0d, 0xf3, 0x0f, 0x10, 0x02, 0xf3, 0x09, 0xfd, 0xf0, 0xfd, 0x1d, 0xeb,
  0xf5, 0xf5, 0xfe, 0x02, 0xfc, 0x09, 0x05, 0x02, 0xdc, 0x05, 0x21, 0xfb,
  0x08, 0xe6, 0xcd, 0xf7, 0x02, 0xec, 0xf9, 0xfa, 0xe8, 0x09, 0xfb, 0xfe,
  0xf2, 0xfd, 0xf9, 0xf8, 0x03, 0x00, 0xe8, 0xf9, 0xf9, 0xfb, 0xe6, 0xff,
  0xff, 0x0d, 0x0e, 0x1c, 0xf6, 0x00, 0x01, 0xff, 0xf9, 0xfb, 0xf6, 0xf7,
  0xfb, 0x03, 0xfe, 0xf0, 0xef, 0xf9, 0xdc, 0xf0, 0x0d, 0xf7, 0x0b, 0xff,
  0x13, 0x06, 0xff, 0xfd, 0x00, 0xf6, 0xff, 0xfe, 0x0b, 0xfc, 0x05, 0xf2,
  0xfd, 0xfa, 0xe7, 0x0d, 0x25, 0x04, 0x03, 0xe8, 0xd2, 0xf0, 0x03, 0xfa,
  0xf4, 0xfe, 0xe8, 0x07, 0xfa, 0x07, 0xfc, 0xfd, 0xf0, 0xf4, 0xfb, 0xfb,
  0xe2, 0xfb, 0x01, 0xfe, 0xee, 0xfd, 0xf6, 0xfe, 0x03, 0x11, 0xf5, 0xf5,
  0x00, 0xfc, 0xf3, 0x07, 0xee, 0xfb, 0xe9, 0x07, 0x18, 0xfd, 0xd8, 0xf9,
  0xc6, 0xfa, 0x1d, 0x07, 0x15, 0x07, 0x00, 0x00, 0xfd, 0xf6, 0x00, 0xf6,
  0x0f, 0xef, 0x02, 0xf2, 0x14, 0xf2, 0x04, 0xf9, 0xd9, 0x0f, 0x21, 0xfa,
  0xf6, 0xfb, 0xe1, 0x04, 0x0d, 0xf7, 0xee, 0xf3, 0xe3, 0x04, 0x02, 0x05,
  0x05, 0xf8, 0xf5, 0xeb, 0xf2, 0xf9, 0xf3, 0xff, 0x0e, 0x00, 0xf7, 0xf9,
  0xfc, 0xf5, 0xfd, 0x06, 0xfd, 0xf6, 0xf3, 0xfc, 0xf6, 0x0f, 0xef, 0xfe,
  0xf0, 0xf8, 0x16, 0x15, 0xf2, 0xff, 0xd1, 0xf6, 0x06, 0x07, 0x0e, 0x19,
  0xe8, 0x02, 0x06, 0xf7, 0x0f, 0x02, 0xf7, 0xf2, 0xde, 0xf6, 0x0a, 0xf0,
  0x0b, 0x02, 0xde, 0x0b, 0x06, 0xed, 0x0c, 0xfd, 0xf0, 0xfe, 0xfb, 0x0a,
  0x04, 0xeb, 0xef, 0xfc, 0x00, 0x0e, 0xf5, 0xfa, 0xee, 0xf7, 0xf7, 0xf3,
  0xe3, 0x01, 0x08, 0x02, 0xfa, 0xf5, 0xf6, 0xf7, 0xf6, 0x06, 0x03, 0xf7,
  0xf2, 0x00, 0xf8, 0x07, 0xed, 0xff, 0xf7, 0xf5, 0x0d, 0x12, 0x03, 0xfe,
  0xe5, 0xf4, 0xfd, 0xfb, 0x09, 0x1f, 0xdf, 0x03, 0x1a, 0xfd, 0x0a, 0x14,
  0xfb, 0xf2, 0xed, 0xf7, 0x04, 0xf4, 0x0d, 0x03, 0xdb, 0x04, 0x0c, 0xee,
  0x11, 0xfd, 0xf6, 0x02, 0xfa, 0x08, 0x10, 0xde, 0xec, 0xf5, 0xfb, 0x04,
  0xe5, 0xec, 0x08, 0xf8, 0xf2, 0xed, 0xf2, 0xf4, 0xfd, 0xfa, 0x09, 0xec,
  0xf1, 0xfc, 0xf2, 0x06, 0x05, 0xf8, 0xe7, 0x01, 0xf1, 0x05, 0xf3, 0x03,
  0xeb, 0x01, 0xfd, 0x16, 0xfd, 0x00, 0xe6, 0xfb, 0xf0, 0x03, 0x01, 0x29,
  0xe9, 0x05, 0x21, 0xfe, 0xff, 0x1a, 0x08, 0x03, 0x02, 0x01, 0x17, 0x07,
  0x16, 0x0a, 0xeb, 0x09, 0x13, 0xf0, 0x07, 0xfb, 0xed, 0xfc, 0x04, 0xf1,
  0xfd, 0xe2, 0xe3, 0xf3, 0xef, 0xfc, 0xec, 0xe6, 0xed, 0xe9, 0xf5, 0xeb,
  0xff, 0xef, 0xfb, 0x00, 0x00, 0xea, 0xff, 0xfd, 0xf4, 0x12, 0x00, 0xf9,
  0xe1, 0x0c, 0xff, 0x0f, 0xfc, 0x11, 0xdb, 0x12, 0x09, 0x29, 0xeb, 0x0a,
  0xc1, 0xf8, 0xe9, 0xed, 0x11, 0x37, 0xf6, 0x00, 0x15, 0xf4, 0xfe, 0x16,
  0x0d, 0x10, 0xe2, 0x0b, 0xfd, 0x02, 0x13, 0x06, 0xf1, 0xff, 0x11, 0xf9,
  0x08, 0xf4, 0xf2, 0xf9, 0x04, 0xf0, 0x0d, 0xf6, 0xe8, 0xfe, 0xe9, 0x03,
  0x19, 0x03, 0xc0, 0xeb, 0x09, 0x08, 0x17, 0x0c, 0xe6, 0x03, 0x03, 0x03,
  0x0d, 0x0f, 0x1c, 0xef, 0xe0, 0x05, 0xf7, 0x1b, 0x1d, 0x09, 0x08, 0xf7,
  0xff, 0x03, 0x09, 0xf4, 0x1a, 0xdf, 0x00, 0xf0, 0x0e, 0xf9, 0x0d, 0xcd,
  0x10, 0x15, 0x21, 0x0b, 0x05, 0x10, 0xfe, 0x16, 0x1d, 0x1e, 0x08, 0xff,
  0xe0, 0x15, 0x00, 0x15, 0x19, 0xf7, 0xf7, 0x0f, 0x2d, 0x17, 0xb3, 0xd5,
  0xf4, 0xec, 0xff, 0xf9, 0xd5, 0xc3, 0x11, 0xf4, 0xec, 0x06, 0x04, 0x08,
  0x0a, 0x05, 0xee, 0x07, 0xf6, 0xfd, 0x02, 0xfc, 0xee, 0xed, 0xf0, 0xff,
  0xfc, 0x02, 0x01, 0xfa, 0xf8, 0xff, 0xf8, 0x01, 0x08, 0xed, 0xe2, 0x04,
  0xf5, 0x07, 0x09, 0x01, 0xf9, 0xf8, 0xff, 0xef, 0x01, 0xe8, 0xf2, 0xf9,
  0xf6, 0x14, 0x0a, 0xf8, 0x04, 0xec, 0xef, 0x01, 0xf4, 0xfd, 0xfe, 0x10,
  0xee, 0xf2, 0x03, 0x05, 0xc3, 0x12, 0xef, 0xdf, 0x10, 0x03, 0xed, 0xd7,
  0xfd, 0x07, 0xfa, 0x0b, 0x02, 0x07, 0x09, 0x0b, 0xfb, 0x01, 0xf6, 0x04,
  0xff, 0xfd, 0xf4, 0x0a, 0xff, 0x01, 0x01, 0x09, 0xf6, 0x18, 0xfb, 0x0d,
  0xfb, 0xe9, 0x1a, 0x03, 0x00, 0xfd, 0xfe, 0xf7, 0xf8, 0xf4, 0xfe, 0xfc,
  0x08, 0xef, 0x0a, 0xfc, 0xe0, 0x0d, 0x06, 0x0d, 0x07, 0xf6, 0xef, 0xfa,
  0x03, 0x02, 0x0a, 0xfd, 0x22, 0xfd, 0xf5, 0x03, 0xef, 0x03, 0x07, 0xfb,
  0xfe, 0xe2, 0xea, 0x01, 0xf5, 0xf9, 0xe6, 0x0d, 0x07, 0x13, 0x05, 0xfe,
  0xf7, 0x10, 0x01, 0x12, 0xe7, 0xfe, 0xf5, 0x03, 0x0a, 0x16, 0xfb, 0x00,
  0xec, 0xf7, 0xf0, 0x10, 0x0e, 0xff, 0x0d, 0xe6, 0x0e, 0xed, 0x14, 0x06,
  0x14, 0xfc, 0x06, 0xfb, 0x0a, 0x06, 0xfe, 0xfa, 0x06, 0x08, 0x03, 0x0e,
  0xf9, 0xf7, 0xf7, 0xf7, 0xfd, 0xfc, 0xf5, 0x07, 0xf3, 0xf7, 0xfd, 0x06,
  0x03, 0x0b, 0x0c, 0x03, 0xed, 0xfe, 0xe5, 0xef, 0xe0, 0x03, 0x06, 0xf0,
  0xf9, 0x0d, 0x00, 0x03, 0xfe, 0xfe, 0xf4, 0x02, 0xfa, 0x08, 0xe9, 0x04,
  0xfb, 0x04, 0xfb, 0x0e, 0x0f, 0x00, 0xee, 0x04, 0x09, 0x09, 0xff, 0x00,
  0x0d, 0xf7, 0x06, 0xf1, 0x10, 0xf4, 0x0a, 0x11, 0xf7, 0xf2, 0x11, 0xef,
  0x08, 0xf4, 0x01, 0x0d, 0xf4, 0x0b, 0x08, 0xff, 0x0e, 0x10, 0xff, 0xfb,
  0x07, 0x07, 0x08, 0xf6, 0xff, 0x01, 0x02, 0xf5, 0xf8, 0xf7, 0xea, 0xfa,
  0x05, 0xec, 0xe5, 0xf9, 0xfa, 0xfd, 0xf2, 0x08, 0xfe, 0xfe, 0x00, 0xff,
  0xfc, 0xfe, 0xfd, 0x04, 0xff, 0x05, 0x03, 0xfe, 0x00, 0x07, 0x09, 0xfd,
  0xfa, 0x01, 0x12, 0x05, 0x09, 0x07, 0x05, 0x00, 0x1f, 0xf9, 0x06, 0xed,
  0x0e, 0x0d, 0x05, 0xf1, 0xfd, 0xf5, 0xf5, 0xf7, 0x0c, 0x03, 0xf3, 0xfa,
  0x0e, 0xfc, 0x16, 0x01, 0x00, 0x01, 0x14, 0x03, 0x0a, 0xfd, 0xf4, 0x0d,
  0x03, 0xee, 0xf9, 0xfc, 0xf8, 0xf9, 0xf7, 0xf1, 0xea, 0xf7, 0xf6, 0xe8,
  0xf3, 0x0a, 0xfb, 0x02, 0xfe, 0x01, 0xfa, 0xfa, 0x05, 0x05, 0xef, 0x03,
  0xfc, 0xfd, 0xf9, 0x04, 0xf6, 0xfe, 0x02, 0x03, 0x00, 0xf0, 0x0a, 0x03,
  0x00, 0x02, 0x10, 0x0a, 0xfc, 0xf2, 0x19, 0x04, 0xfc, 0xfe, 0x0a, 0xeb,
  0xff, 0xf2, 0x0d, 0x02, 0xf1, 0xff, 0x16, 0xf7, 0x12, 0x03, 0x07, 0xf9,
  0x10, 0x05, 0x00, 0x02, 0x06, 0x09, 0x03, 0xf1, 0xf6, 0xff, 0xf8, 0xfc,
  0x04, 0xf5, 0xd2, 0xf5, 0xfe, 0xed, 0xf4, 0x00, 0x03, 0x01, 0xf9, 0x07,
  0xf3, 0x03, 0x10, 0x02, 0xf4, 0x08, 0x01, 0xff, 0x09, 0x08, 0xfb, 0xfb,
  0xf5, 0xf8, 0x0b, 0xf9, 0xff, 0x01, 0xff, 0x01, 0x08, 0x04, 0x0f, 0xf7,
  0x11, 0xfd, 0xfd, 0xf4, 0x08, 0xdb, 0x02, 0xf1, 0xf8, 0x05, 0xf5, 0xfb,
  0xfb, 0x07, 0xfc, 0xfe, 0xf7, 0xff, 0xed, 0xfe, 0x00, 0xfe, 0xf7, 0x00,
  0x05, 0xf7, 0x04, 0xfa, 0xe5, 0xfb, 0xf7, 0xfe, 0xd4, 0xf0, 0x03, 0x07,
  0xef, 0x05, 0xfe, 0x0f, 0xf3, 0x06, 0xf6, 0x05, 0x0e, 0x08, 0xfc, 0x08,
  0x00, 0xff, 0x10, 0x0c, 0xfd, 0x05, 0xfc, 0xf9, 0x06, 0x05, 0x08, 0xfc,
  0xff, 0xfe, 0x02, 0xf2, 0x11, 0x03, 0x0b, 0x0a, 0xf7, 0xf8, 0x04, 0xde,
  0x01, 0xfc, 0xfa, 0x0e, 0xf6, 0xf5, 0xfb, 0x04, 0xf3, 0x04, 0x07, 0x01,
  0xf9, 0xf9, 0xfb, 0xfa, 0xf5, 0x08, 0x16, 0xf9, 0xfd, 0xf9, 0xe1, 0x07,
  0x0f, 0xeb, 0xdb, 0xf8, 0xff, 0x03, 0xd7, 0xf8, 0xff, 0x09, 0xf1, 0x0b,
  0xf1, 0x03, 0x09, 0x07, 0x04, 0x0f, 0xff, 0x00, 0xfa, 0xf3, 0xf4, 0x09,
  0xfb, 0xf5, 0x02, 0xf0, 0xfc, 0xfe, 0x11, 0x01, 0x01, 0xfc, 0x0e, 0xf5,
  0x12, 0xfc, 0xed, 0xf4, 0x00, 0xde, 0x08, 0x05, 0x03, 0x16, 0xe7, 0xf8,
  0xfd, 0xfd, 0xff, 0x09, 0xfc, 0x0b, 0x08, 0xf9, 0xed, 0xfe, 0xf5, 0x08,
  0xfc, 0xfd, 0xf1, 0xf7, 0xe3, 0x10, 0xf5, 0xe4, 0xd5, 0xf2, 0xfe, 0x16,
  0xc9, 0x00, 0xf4, 0x09, 0x04, 0x0f, 0xee, 0x0a, 0x0e, 0x05, 0xef, 0x17,
  0xdd, 0x16, 0x07, 0xec, 0xe8, 0x0e, 0xf7, 0xfa, 0x0c, 0xd3, 0xe7, 0xff,
  0xfb, 0xfe, 0x18, 0xd3, 0x07, 0xd6, 0x14, 0xf7, 0x0e, 0xe7, 0x1e, 0xca,
  0x19, 0xf9, 0x04, 0x08, 0x16, 0xea, 0x04, 0x09, 0xeb, 0x17, 0xfe, 0x0f,
  0xdc, 0x2d, 0xef, 0x15, 0xf3, 0x14, 0xd6, 0x17, 0x02, 0x02, 0xfc, 0x1c,
  0xb6, 0xf6, 0xfb, 0xfe, 0x03, 0x21, 0xef, 0x0e, 0x05, 0xf2, 0x14, 0x03,
  0x18, 0xff, 0x15, 0xf3, 0x10, 0x0a, 0x0f, 0x08, 0xea, 0x04, 0x21, 0xfd,
  0x04, 0x15, 0xe8, 0x22, 0xef, 0xf7, 0x01, 0xf3, 0x08, 0xf8, 0x1f, 0xec,
  0xfd, 0xf6, 0x0a, 0xeb, 0x03, 0xf0, 0x0b, 0x0f, 0xfe, 0xfd, 0x15, 0xf5,
  0xfb, 0x19, 0x0f, 0xfe, 0xea, 0x1a, 0xdd, 0xea, 0x18, 0x13, 0x05, 0xc1,
  0x24, 0xf9, 0xf5, 0xf4, 0xde, 0xaf, 0x15, 0xe4, 0x11, 0xf7, 0x13, 0xec,
  0x10, 0xf8, 0x0a, 0xee, 0x1e, 0xfc, 0x0c, 0xfe, 0x2e, 0xda, 0x0c, 0x07,
  0xf0, 0x15, 0xfc, 0x0a, 0x2e, 0xff, 0x05, 0xf6, 0xe6, 0x00, 0xdf, 0x05,
  0xfc, 0xf5, 0xe2, 0x01, 0xe7, 0xef, 0x03, 0x05, 0xfe, 0xf8, 0xe1, 0xfb,
  0xed, 0x0a, 0xed, 0x07, 0x01, 0x05, 0xea, 0xf0, 0xfc, 0xf5, 0x04, 0x05,
  0x0d, 0x01, 0x03, 0xfb, 0x1c, 0xf0, 0x07, 0xe5, 0x12, 0xf8, 0xf3, 0xb0,
  0x36, 0xd5, 0x06, 0xab, 0x14, 0xd8, 0x08, 0xcd, 0xf1, 0xff, 0x18, 0xfb,
  0xf6, 0x01, 0x17, 0x02, 0xf3, 0x04, 0xf1, 0x11, 0x15, 0x10, 0x17, 0xfe,
  0xfd, 0xf8, 0x0e, 0x05, 0xfd, 0x0a, 0x11, 0xfe, 0x01, 0x13, 0x00, 0xf7,
  0x08, 0xf4, 0xeb, 0x02, 0x0c, 0xf2, 0xf1, 0x0a, 0x02, 0x17, 0xef, 0x10,
  0xe5, 0xf6, 0x0c, 0xfd, 0x05, 0x0c, 0xf6, 0x0d, 0x0c, 0xf4, 0x15, 0xfe,
  0xe5, 0xe4, 0x00, 0xf6, 0xf6, 0xc4, 0x25, 0xdd, 0x08, 0xc9, 0x0c, 0xd4,
  0x0e, 0xfb, 0xda, 0xea, 0x10, 0xf9, 0xe1, 0xf4, 0xfd, 0x0e, 0xf3, 0xfd,
  0xf6, 0xfc, 0xf2, 0xff, 0x17, 0x05, 0x06, 0xf6, 0x02, 0x0f, 0x18, 0x0a,
  0x05, 0x0e, 0xfd, 0x0f, 0x07, 0xf4, 0xfc, 0xfa, 0xf1, 0x03, 0x10, 0xe4,
  0xf4, 0xf2, 0x07, 0x0d, 0xf0, 0x10, 0xf2, 0xfd, 0x17, 0x03, 0xf4, 0x1a,
  0x01, 0x01, 0x21, 0xff, 0xf9, 0x06, 0xe4, 0xee, 0x14, 0xee, 0xfe, 0xdd,
  0x0c, 0xf3, 0xfc, 0xf9, 0x0b, 0xd4, 0x1f, 0xf7, 0xe1, 0xdc, 0x04, 0x03,
  0x02, 0xf9, 0x12, 0x07, 0xf6, 0xff, 0x08, 0xf2, 0xf4, 0xf1, 0x1c, 0xfd,
  0x15, 0xf9, 0xf9, 0xf3, 0x16, 0x0e, 0x0b, 0x0d, 0x12, 0xfe, 0x07, 0xf9,
  0x00, 0x01, 0x09, 0xfd, 0x02, 0xed, 0xfa, 0x01, 0x0f, 0x05, 0xf4, 0xff,
  0xfb, 0xf1, 0x0a, 0xff, 0xfe, 0x12, 0x00, 0xef, 0x15, 0x02, 0xf4, 0x00,
  0xf2, 0x03, 0x14, 0xfa, 0xf6, 0xe2, 0x2f, 0xfd, 0xf1, 0xfd, 0x06, 0xe6,
  0x0e, 0x13, 0xf0, 0xe9, 0x0a, 0xf7, 0x09, 0xf7, 0x16, 0xf4, 0xed, 0x03,
  0x12, 0xf6, 0xf8, 0xf7, 0x1f, 0xff, 0x08, 0xfe, 0x00, 0xf9, 0x11, 0x08,
  0x0d, 0x0e, 0xf7, 0x06, 0x0e, 0x01, 0x10, 0x00, 0x01, 0x03, 0xfa, 0xe6,
  0xfe, 0x01, 0x02, 0x05, 0xe2, 0x03, 0x06, 0xf4, 0x04, 0x00, 0xe7, 0xfe,
  0xfe, 0xfe, 0x18, 0xfb, 0xf2, 0xf2, 0xe1, 0xfe, 0x0a, 0xfa, 0xf2, 0xf9,
  0x02, 0x06, 0xe8, 0xf4, 0xfc, 0xe2, 0x08, 0x0c, 0xee, 0xe6, 0x0b, 0x01,
  0xfa, 0xfa, 0x0a, 0x02, 0xfd, 0x02, 0x0b, 0xfc, 0x00, 0xfb, 0x21, 0x04,
  0x04, 0x00, 0x02, 0xfa, 0x0b, 0x04, 0x03, 0x08, 0xf5, 0x03, 0xfb, 0x04,
  0x0c, 0x00, 0xf1, 0x06, 0xfc, 0xef, 0x01, 0x0a, 0xff, 0x02, 0xda, 0xfd,
  0xf4, 0xf7, 0xf9, 0xfe, 0xf0, 0xfe, 0x07, 0x03, 0x04, 0x02, 0xfe, 0xf7,
  0xf4, 0x09, 0x17, 0x0b, 0xfc, 0xf6, 0xef, 0x01, 0xf9, 0x0b, 0x07, 0xf2,
  0x16, 0xf5, 0xf6, 0xf1, 0xfd, 0x03, 0xfc, 0xf6, 0xf4, 0xfb, 0xff, 0x00,
  0x01, 0x0c, 0xfb, 0x0b, 0xff, 0x0a, 0xfa, 0x05, 0xf9, 0xf8, 0x18, 0x06,
  0x03, 0x0e, 0xf3, 0xff, 0xf0, 0x12, 0x04, 0x09, 0xf4, 0x0b, 0x04, 0xf0,
  0xf6, 0x08, 0xf6, 0xff, 0xd4, 0xfd, 0xfc, 0x01, 0xfa, 0xff, 0xf9, 0xff,
  0xf5, 0x03, 0x01, 0xfe, 0xf2, 0xff, 0x0a, 0xf9, 0x08, 0x05, 0xf6, 0xeb,
  0xe1, 0x01, 0xff, 0x0d, 0xf9, 0x03, 0x0d, 0xe3, 0x10, 0xed, 0xfc, 0x00,
  0x0a, 0xee, 0xfe, 0x04, 0x18, 0x0a, 0xff, 0x02, 0xfb, 0x02, 0x02, 0x0c,
  0xff, 0x08, 0xf8, 0xfe, 0xfa, 0x0a, 0xfe, 0x05, 0xf8, 0x01, 0xfc, 0x14,
  0x01, 0x0b, 0xfe, 0x0a, 0xfb, 0xf7, 0x00, 0xfe, 0xe1, 0xfb, 0x00, 0x01,
  0xfa, 0x00, 0x09, 0xfc, 0xf9, 0x0c, 0xe5, 0x14, 0x0e, 0xf7, 0xfb, 0x0f,
  0xe6, 0xf1, 0x12, 0x0f, 0x04, 0xed, 0xd0, 0xed, 0xfc, 0xeb, 0x0b, 0x0c,
  0x18, 0xd2, 0x0c, 0xf8, 0xea, 0x03, 0x1f, 0x06, 0x05, 0x04, 0x11, 0x05,
  0xfa, 0xf6, 0x05, 0x0a, 0x0b, 0x11, 0x0f, 0x01, 0xf5, 0x02, 0xf2, 0x0d,
  0xfd, 0x0a, 0xec, 0xf7, 0x05, 0x14, 0xfe, 0x03, 0xf0, 0x0e, 0xfa, 0x01,
  0xf0, 0xfd, 0xdd, 0xfe, 0xfe, 0x0b, 0xf7, 0xfa, 0xfd, 0x03, 0xee, 0x04,
  0xf5, 0x00, 0x05, 0xf6, 0x02, 0xf7, 0xfa, 0xe7, 0x07, 0x04, 0x01, 0xf7,
  0xe1, 0xd5, 0x18, 0x08, 0x05, 0xf9, 0x22, 0xd9, 0xf0, 0xeb, 0xfb, 0xf9,
  0x30, 0xfc, 0xdf, 0xf2, 0x10, 0x03, 0x09, 0x05, 0xf5, 0x1a, 0xff, 0x14,
  0xff, 0x15, 0xf0, 0x13, 0xd7, 0x0e, 0xf8, 0x01, 0xd5, 0xf9, 0xf4, 0x18,
  0xeb, 0x09, 0xdd, 0x09, 0xe5, 0xf7, 0xe4, 0x0f, 0xcd, 0xfd, 0xec, 0x11,
  0xee, 0x07, 0xf3, 0x02, 0xde, 0x00, 0x29, 0xfb, 0xe2, 0x05, 0xed, 0xfb,
  0xee, 0xf1, 0xff, 0x0b, 0xe4, 0xf0, 0x18, 0xef, 0x0b, 0x1a, 0xf5, 0x06,
  0xcd, 0x08, 0xf3, 0xf9, 0xfe, 0xf4, 0xfe, 0xf9, 0xe8, 0xd7, 0x0d, 0xfc,
  0x03, 0xee, 0x04, 0xf8, 0x1b, 0x1f, 0x13, 0x09, 0xf8, 0xe7, 0xd1, 0x21,
  0x03, 0x25, 0xe9, 0x1c, 0xcc, 0x20, 0xe9, 0x21, 0xff, 0x1e, 0xf9, 0x1d,
  0xee, 0xf1, 0xf7, 0x21, 0xfd, 0xe6, 0xe3, 0xd2, 0xe9, 0x0b, 0xf5, 0xd2,
  0xf6, 0xed, 0xb6, 0xf3, 0xf3, 0xbf, 0xdf, 0xfb, 0xe7, 0xd6, 0xd1, 0xfb,
  0xba, 0xff, 0x10, 0xb3, 0xfb, 0xfa, 0x06, 0x10, 0xdf, 0x08, 0xfe, 0x00,
  0x0e, 0xf0, 0xe6, 0xf0, 0xfa, 0x0b, 0x03, 0x01, 0x10, 0xf9, 0x02, 0x0d,
  0x05, 0x0b, 0x15, 0x0c, 0x09, 0x0e, 0x0f, 0x0d, 0x0a, 0x09, 0x0e, 0x18,
  0x12, 0xf5, 0x04, 0x19, 0x0b, 0x21, 0x11, 0x01, 0xf9, 0x17, 0x15, 0xe9,
  0x1b, 0x02, 0x21, 0x06, 0x10, 0xe4, 0x0d, 0xf7, 0xfe, 0x01, 0xf7, 0x04,
  0xfc, 0xf5, 0xf7, 0xfb, 0x14, 0xf7, 0xe2, 0xf7, 0xef, 0xef, 0xe8, 0xef,
  0x12, 0x13, 0xf3, 0x10, 0x07, 0x0d, 0x06, 0xf4, 0xf1, 0xff, 0xfc, 0x07,
  0x13, 0xff, 0xf3, 0xf3, 0xfa, 0x08, 0x0a, 0x09, 0x1a, 0x01, 0x04, 0x08,
  0xfe, 0x13, 0xe9, 0x07, 0x05, 0x00, 0x0c, 0x01, 0x01, 0x08, 0xf8, 0x01,
  0xfd, 0x03, 0xfa, 0x03, 0x13, 0xdf, 0x01, 0xfa, 0xfd, 0x09, 0x15, 0xe4,
  0xfc, 0xf5, 0x03, 0x09, 0xe2, 0x01, 0xf9, 0x07, 0x07, 0xff, 0x05, 0x0b,
  0xe2, 0xf2, 0xe8, 0xf6, 0xf4, 0xc4, 0xf2, 0x01, 0xf8, 0x06, 0xfe, 0x0c,
  0x0c, 0xfc, 0xf0, 0xfe, 0x0c, 0x05, 0x11, 0x01, 0xec, 0xef, 0xf8, 0xfe,
  0x0d, 0x0f, 0x21, 0xf9, 0xe0, 0xfb, 0xf4, 0x0a, 0xed, 0x0c, 0xf0, 0xf3,
  0xfb, 0x0d, 0xfd, 0x05, 0xef, 0x0b, 0x08, 0x0f, 0xe9, 0xf3, 0x0c, 0xe0,
  0xfc, 0xff, 0xf7, 0x03, 0x06, 0xf7, 0x01, 0xf5, 0xf9, 0x08, 0x03, 0x08,
  0xfd, 0x02, 0xf4, 0x07, 0xed, 0x11, 0xef, 0xee, 0xe8, 0xfd, 0xf9, 0xe6,
  0xf0, 0x06, 0xf7, 0x05, 0xfe, 0x03, 0x05, 0x00, 0xf5, 0xfe, 0xfc, 0x08,
  0x04, 0x03, 0x07, 0x04, 0xed, 0xfe, 0x0e, 0xfb, 0x07, 0x02, 0xf8, 0xea,
  0xf7, 0xfc, 0xdc, 0x04, 0xe8, 0xff, 0xf6, 0x03, 0x01, 0x08, 0xe8, 0x11,
  0xfb, 0x0a, 0xf5, 0xf9, 0x0f, 0xe9, 0xf9, 0xfb, 0xf2, 0xf1, 0xfd, 0x02,
  0xff, 0xf4, 0x0d, 0x05, 0xda, 0x05, 0xfb, 0x12, 0xe8, 0x04, 0xf6, 0x0f,
  0xd9, 0xf3, 0xf1, 0x08, 0xf9, 0xe1, 0x01, 0x05, 0x08, 0x0d, 0x04, 0x05,
  0xff, 0x0b, 0xee, 0x08, 0xf1, 0x06, 0xf4, 0x04, 0x0f, 0x04, 0xf3, 0x07,
  0x06, 0x03, 0x04, 0xf3, 0x01, 0xe9, 0xf6, 0xf8, 0xcd, 0xf8, 0xef, 0xff,
  0xed, 0xf7, 0xff, 0x00, 0xf2, 0x1b, 0xf5, 0x07, 0xea, 0xfc, 0x1b, 0xf8,
  0xec, 0x02, 0xf8, 0xf6, 0xf8, 0x0b, 0xea, 0xfb, 0xfc, 0x08, 0xef, 0xfc,
  0xf6, 0x12, 0xff, 0x07, 0xf8, 0x02, 0xec, 0xf5, 0xed, 0x08, 0xfa, 0xda,
  0xf4, 0x06, 0x0a, 0x0a, 0x07, 0x07, 0x04, 0x0b, 0x0a, 0x04, 0xd7, 0x00,
  0xf6, 0x04, 0x01, 0x09, 0xfa, 0x00, 0x08, 0xf1, 0xfd, 0xfa, 0xfc, 0xed,
  0xf6, 0xfb, 0xe4, 0xf0, 0xf9, 0xef, 0xed, 0xfa, 0xed, 0xfd, 0xeb, 0x08,
  0xfb, 0x04, 0xf6, 0xf6, 0x1a, 0xef, 0xf6, 0xfd, 0x00, 0xfd, 0x02, 0x0d,
  0xe7, 0x00, 0x0b, 0x08, 0xed, 0x09, 0xf1, 0x08, 0xe9, 0x00, 0xf6, 0xfd,
  0xef, 0xff, 0xda, 0x06, 0xf8, 0xdb, 0xec, 0x05, 0x0e, 0x01, 0x00, 0x08,
  0x01, 0x00, 0x02, 0xfd, 0xe1, 0x01, 0x09, 0xff, 0xff, 0x03, 0x02, 0xf7,
  0x13, 0xf6, 0xf2, 0xf5, 0x06, 0xed, 0x03, 0x01, 0xe2, 0xf9, 0xee, 0xff,
  0xe8, 0x03, 0xee, 0x08, 0xef, 0x09, 0xf8, 0x00, 0x00, 0xfc, 0x15, 0xf3,
  0xf3, 0x00, 0x1b, 0x03, 0x0f, 0x06, 0x16, 0xf5, 0x16, 0xfd, 0x0a, 0x06,
  0xfa, 0x04, 0xf6, 0x07, 0x0a, 0x03, 0x0e, 0xf2, 0xe0, 0x04, 0xfe, 0xe5,
  0xf6, 0x04, 0x08, 0x03, 0xfb, 0x05, 0xfd, 0xfb, 0x05, 0x02, 0xe0, 0xfa,
  0x00, 0x05, 0x0c, 0xfb, 0x0b, 0xf6, 0x01, 0xf7, 0x05, 0xf4, 0x14, 0xf1,
  0x00, 0x0d, 0x07, 0xfc, 0xfa, 0xfa, 0xf4, 0xfb, 0xf8, 0xf8, 0xfa, 0x06,
  0xfb, 0xf7, 0xfc, 0xee, 0x14, 0xf5, 0xf6, 0xfd, 0x02, 0x01, 0xfa, 0x00,
  0x01, 0xfd, 0xfd, 0x00, 0x11, 0x08, 0xdf, 0x0a, 0xf2, 0x00, 0x02, 0x04,
  0x06, 0xfa, 0xcc, 0xfb, 0xf7, 0xe8, 0x19, 0x04, 0x03, 0xfe, 0xe7, 0xff,
  0xfe, 0x05, 0xf8, 0xff, 0xf3, 0xf7, 0x06, 0xf8, 0x05, 0x0f, 0x04, 0xf8,
  0x0a, 0xfc, 0x12, 0x09, 0x06, 0xf9, 0x0f, 0x03, 0x06, 0x0a, 0xea, 0xf7,
  0xf4, 0x08, 0x06, 0x05, 0x13, 0x0b, 0x06, 0xf5, 0xf3, 0x09, 0x13, 0xf6,
  0x0a, 0x0a, 0xf9, 0x06, 0x10, 0xf4, 0x00, 0xfa, 0x04, 0xfc, 0x08, 0x05,
  0xe4, 0x04, 0xf7, 0xf8, 0x16, 0xfe, 0xfa, 0x0e, 0xe2, 0x00, 0xf7, 0xe4,
  0x3d, 0x02, 0x04, 0xfb, 0xc2, 0xf2, 0xf5, 0x06, 0x06, 0xfe, 0x07, 0xee,
  0x03, 0xd0, 0x15, 0x00, 0x10, 0x01, 0x14, 0xf6, 0x05, 0xf6, 0x15, 0xec,
  0x0d, 0xf9, 0x00, 0xea, 0xfc, 0x01, 0xf6, 0x03, 0x0d, 0xef, 0xfe, 0x24,
  0x07, 0xe9, 0x12, 0xf6, 0x0c, 0xfd, 0xf4, 0xf8, 0xf9, 0xf7, 0x13, 0xf1,
  0xf4, 0xfb, 0xf1, 0xfd, 0x11, 0x04, 0xfe, 0x05, 0xfa, 0xfd, 0x29, 0xf3,
  0xef, 0x1e, 0xe8, 0xfd, 0x01, 0xe1, 0xd9, 0xaf, 0x06, 0xca, 0xec, 0xc8,
  0xc5, 0xa7, 0x02, 0xce, 0xf5, 0xcf, 0xc3, 0xac, 0xfe, 0xb0, 0x04, 0xde,
  0xdd, 0xd9, 0xf8, 0xb1, 0xf7, 0xf0, 0xd0, 0xec, 0xf1, 0xde, 0xea, 0xed,
  0xee, 0xdc, 0xd0, 0xcc, 0xf9, 0xea, 0xf1, 0xe1, 0xf2, 0xd8, 0xec, 0x03,
  0x00, 0x02, 0x0b, 0xd6, 0xed, 0x1c, 0x05, 0x04, 0x04, 0xfd, 0x07, 0x29,
  0x09, 0x0b, 0xfa, 0x19, 0x0d, 0x2b, 0x1c, 0x13, 0xf6, 0x05, 0x14, 0x17,
  0xc7, 0x8d, 0x01, 0xc1, 0xeb, 0xbf, 0xb8, 0x9a, 0x06, 0xc9, 0xf0, 0xc5,
  0xd5, 0xbc, 0x09, 0xc7, 0x0a, 0xdf, 0xec, 0xd4, 0xff, 0xac, 0xfd, 0xf8,
  0xf8, 0xe4, 0xec, 0xfc, 0x0e, 0xf8, 0x0d, 0xe7, 0x08, 0xe6, 0xf2, 0xed,
  0x06, 0xf1, 0x27, 0xff, 0x01, 0x00, 0xf9, 0xf8, 0x0e, 0xd4, 0x0f, 0x04,
  0xfc, 0xf5, 0xf7, 0x0c, 0xf1, 0x05, 0xed, 0x00, 0x0e, 0x04, 0x0a, 0x12,
  0xf9, 0x07, 0xfd, 0x05, 0x2f, 0x08, 0xb3, 0x81, 0xf2, 0xb7, 0x09, 0xcb,
  0xac, 0xb9, 0xf3, 0xef, 0xf7, 0xd3, 0xb6, 0xd8, 0xfd, 0xfd, 0xef, 0xe4,
  0xca, 0xec, 0x0f, 0x14, 0x0a, 0xfa, 0xfb, 0x14, 0x13, 0x0e, 0x09, 0x00,
  0x04, 0xf2, 0x00, 0xf8, 0xf8, 0xf5, 0xf3, 0xf1, 0x27, 0xef, 0xfa, 0xf5,
  0xfd, 0xe6, 0x24, 0xe3, 0xfa, 0xf4, 0xfb, 0xfa, 0xf7, 0xeb, 0xe2, 0xf7,
  0x00, 0x10, 0x14, 0xf6, 0xfc, 0x12, 0xd5, 0x14, 0x30, 0x0b, 0x48, 0x04,
  0x97, 0xc0, 0xdd, 0xd3, 0x02, 0xe2, 0xcd, 0xc5, 0xe0, 0x06, 0xe6, 0xf6,
  0xd0, 0xf1, 0xfc, 0x13, 0xf1, 0xe8, 0xd9, 0x0c, 0x09, 0xff, 0xfe, 0xf9,
  0xfa, 0x00, 0x19, 0x05, 0x1e, 0x07, 0xfa, 0xf7, 0x29, 0xf0, 0x14, 0xfc,
  0xf8, 0xf8, 0x20, 0xf0, 0x01, 0xf1, 0xfb, 0xeb, 0x25, 0xf1, 0x01, 0xf4,
  0xe8, 0xfd, 0x22, 0xeb, 0xfb, 0xfa, 0xef, 0xf2, 0x2a, 0xea, 0x18, 0x0c,
  0xf6, 0xf2, 0x29, 0x00, 0x28, 0xfc, 0xe1, 0xd9, 0xc1, 0x0d, 0xf7, 0x0b,
  0x15, 0xf7, 0xee, 0xf8, 0xde, 0x01, 0xf9, 0xee, 0x10, 0x06, 0xe7, 0xf5,
  0xf4, 0xf3, 0x18, 0x18, 0x17, 0xfa, 0xec, 0x06, 0x0a, 0x0e, 0xfe, 0x03,
  0xf1, 0x00, 0x13, 0xf3, 0x06, 0xfd, 0xee, 0xf9, 0x16, 0xf4, 0x09, 0xf4,
  0x03, 0xf5, 0x14, 0xfd, 0x10, 0xfd, 0xfc, 0xfe, 0x07, 0xf2, 0x04, 0x09,
  0x11, 0xef, 0x10, 0xfc, 0x18, 0x07, 0x05, 0x02, 0x15, 0xfd, 0x12, 0xf1,
  0xff, 0xeb, 0xd9, 0xe3, 0xd4, 0x16, 0x0c, 0x0e, 0xe9, 0xf8, 0xe6, 0x08,
  0x0e, 0x19, 0x01, 0xff, 0xef, 0xfd, 0xfd, 0x00, 0x10, 0x00, 0xfc, 0xf6,
  0xf8, 0x03, 0xfd, 0xfd, 0xee, 0xfe, 0x01, 0x02, 0x01, 0x05, 0x03, 0x02,
  0xf4, 0x03, 0x14, 0xfd, 0x01, 0x0a, 0x07, 0xfb, 0x18, 0xfc, 0xfb, 0x04,
  0x15, 0xf8, 0x01, 0x08, 0xff, 0x08, 0x09, 0x04, 0xfc, 0x0e, 0x0e, 0x0e,
  0xe9, 0xf9, 0x13, 0x0c, 0x1b, 0xf0, 0x05, 0x05, 0xda, 0xe3, 0xd1, 0x1c,
  0x13, 0x07, 0xec, 0x0b, 0x0d, 0x07, 0x02, 0x0f, 0x05, 0xf6, 0xfd, 0x04,
  0xfb, 0x01, 0x08, 0xfe, 0xfb, 0xff, 0xfb, 0xfb, 0x02, 0x02, 0x10, 0x04,
  0x0d, 0x0b, 0x10, 0x0b, 0x06, 0xfe, 0xf9, 0xfe, 0x04, 0xff, 0x0e, 0x07,
  0x1b, 0x05, 0xf6, 0xfe, 0x0f, 0x07, 0x19, 0x1a, 0xfa, 0x1b, 0x09, 0x00,
  0x0b, 0x1f, 0x0b, 0x13, 0x06, 0x04, 0x03, 0xfb, 0x02, 0x0a, 0xff, 0xf7,
  0x09, 0xee, 0xf8, 0x09, 0xf0, 0x16, 0x19, 0x0a, 0x00, 0x14, 0x06, 0xfa,
  0x01, 0xf6, 0x04, 0xfe, 0x05, 0x02, 0xfa, 0xf8, 0xfe, 0x19, 0xfe, 0xfb,
  0xee, 0xef, 0xfd, 0x02, 0x08, 0xf9, 0xfe, 0xfc, 0x04, 0xfc, 0x01, 0xfd,
  0x00, 0x0d, 0x08, 0x00, 0x0d, 0x0c, 0xfb, 0x16, 0x0a, 0xf7, 0x0e, 0x07,
  0x07, 0x1b, 0x01, 0xf0, 0x0b, 0xfb, 0x10, 0x19, 0x03, 0x0a, 0x11, 0xfc,
  0x18, 0x00, 0xf4, 0x0e, 0x0a, 0x04, 0x0e, 0xe4, 0xfb, 0xff, 0xf5, 0x0f,
  0x1d, 0x0b, 0xfa, 0x04, 0x10, 0xfe, 0x0c, 0x03, 0xf8, 0x0e, 0x0a, 0xfd,
  0xfe, 0x00, 0x01, 0x14, 0xf9, 0xf9, 0xfc, 0xf7, 0x04, 0x12, 0x00, 0x03,
  0xfa, 0x05, 0xfb, 0x14, 0xfb, 0x03, 0x09, 0x07, 0x0a, 0xfe, 0x0f, 0x07,
  0xe8, 0x09, 0x0e, 0xea, 0x03, 0x0d, 0x06, 0x10, 0xfd, 0xe9, 0x12, 0xff,
  0x0d, 0x1d, 0xfe, 0xf4, 0xfc, 0xf0, 0x0e, 0x18, 0x12, 0x1d, 0x0d, 0x07,
  0x03, 0xfa, 0x05, 0xf7, 0xfe, 0x0b, 0x1c, 0x19, 0xfd, 0xfc, 0x03, 0xfb,
  0x10, 0xf6, 0xf1, 0x01, 0xff, 0xf4, 0x0a, 0xfb, 0xfd, 0x0d, 0xf9, 0xfc,
  0x07, 0xf1, 0xfc, 0x03, 0xfe, 0xfb, 0x05, 0xfd, 0xfe, 0x0c, 0xff, 0x01,
  0xf6, 0x01, 0x0c, 0xfa, 0x08, 0x01, 0xf0, 0xf8, 0x0c, 0xdc, 0x0c, 0xfc,
  0xf1, 0x16, 0x02, 0xfd, 0x06, 0x03, 0x02, 0x0b, 0xf6, 0xf9, 0x02, 0xf4,
  0x07, 0x0b, 0xfe, 0x0d, 0xf8, 0x0d, 0x14, 0x17, 0xfc, 0x0a, 0xe5, 0x0c,
  0x17, 0x23, 0x06, 0x09, 0xfe, 0x04, 0x16, 0x0d, 0x01, 0x15, 0x03, 0xff,
  0x12, 0x06, 0xf9, 0x10, 0x06, 0xf4, 0x17, 0x03, 0xfa, 0x00, 0x03, 0xfd,
  0x0b, 0x03, 0xfe, 0x19, 0xfd, 0x00, 0xf3, 0xd3, 0xf5, 0xf7, 0x07, 0xe1,
  0xe9, 0x08, 0xef, 0xd8, 0x09, 0xfa, 0xe9, 0x0e, 0x01, 0x02, 0xf7, 0x11,
  0xfa, 0x06, 0xff, 0x09, 0x0f, 0x08, 0x0d, 0x14, 0x00, 0x18, 0xff, 0x1b,
  0x14, 0xf9, 0x29, 0x30, 0x09, 0x0f, 0xf0, 0x0c, 0x1a, 0x30, 0xd5, 0x09,
  0xf8, 0x09, 0xd6, 0xf7, 0xf2, 0xe2, 0x10, 0xd0, 0xc5, 0xf8, 0x06, 0xf9,
  0x08, 0xe9, 0x13, 0x00, 0xf0, 0x18, 0x19, 0x02, 0x10, 0xff, 0xfa, 0x25,
  0x10, 0xec, 0xd8, 0xd4, 0x07, 0xfc, 0x15, 0x0a, 0xcc, 0xba, 0x0d, 0xf4,
  0x1a, 0x05, 0x11, 0xec, 0xca, 0x25, 0xff, 0xd0, 0xe3, 0xf7, 0x12, 0x14,
  0xe7, 0x04, 0xf8, 0xe9, 0xed, 0xe4, 0x04, 0x04, 0x10, 0x14, 0x00, 0x09,
  0x01, 0x0e, 0x1c, 0x1c, 0xf2, 0x06, 0x08, 0x00, 0x0d, 0x21, 0xea, 0xfa,
  0x05, 0x0f, 0x05, 0x0e, 0x06, 0xf1, 0xfd, 0x03, 0x0c, 0x10, 0x1d, 0x00,
  0x02, 0xf0, 0x10, 0x06, 0x11, 0xec, 0x03, 0x10, 0x05, 0x03, 0x05, 0xf6,
  0xfb, 0xf9, 0xc4, 0x11, 0x0b, 0x06, 0x00, 0xfb, 0x00, 0x11, 0xde, 0xfc,
  0xf1, 0x07, 0x07, 0x0f, 0x1e, 0xdc, 0xf0, 0x0a, 0xe4, 0xde, 0x13, 0xcf,
  0x06, 0x03, 0x0d, 0xf1, 0xfc, 0x01, 0x03, 0x03, 0x0f, 0x03, 0x00, 0x07,
  0xfb, 0xff, 0x06, 0x08, 0xd5, 0xff, 0xfa, 0x03, 0xe8, 0xec, 0xf5, 0xf3,
  0x01, 0xff, 0xf5, 0xef, 0xf8, 0x10, 0xfb, 0xff, 0x0c, 0xfc, 0xf9, 0x09,
  0x0d, 0x00, 0xe2, 0xef, 0x17, 0xef, 0xff, 0x08, 0xd4, 0xf3, 0x0c, 0x09,
  0x01, 0x06, 0xe3, 0x06, 0xcd, 0x06, 0x14, 0x07, 0x12, 0xfd, 0xf8, 0xf6,
  0xe0, 0x02, 0xf8, 0xf3, 0x09, 0xd4, 0x14, 0x0b, 0xfb, 0xf9, 0xf0, 0x00,
  0x12, 0xfe, 0x0b, 0xf8, 0xf9, 0x05, 0xfb, 0x05, 0x10, 0x0e, 0xed, 0xf5,
  0x06, 0x02, 0xe1, 0xee, 0x19, 0xfa, 0xff, 0x05, 0xee, 0x09, 0xfb, 0x06,
  0xf2, 0x02, 0x03, 0x06, 0xd4, 0x01, 0xf6, 0x09, 0xfc, 0x00, 0xf5, 0xf2,
  0x08, 0x08, 0xf4, 0xf5, 0x02, 0xfe, 0xf9, 0x03, 0x0a, 0x0d, 0xd7, 0xfc,
  0xf3, 0xf4, 0x0c, 0xff, 0x0d, 0xf0, 0xe3, 0x11, 0x16, 0xf5, 0xf5, 0xe0,
  0x17, 0xed, 0x05, 0xff, 0x07, 0x00, 0x0f, 0x02, 0xf9, 0xfb, 0xfb, 0x03,
  0xfd, 0x0a, 0x07, 0x01, 0xf8, 0xfd, 0x04, 0x01, 0xe3, 0xe5, 0x06, 0xf7,
  0xed, 0xfe, 0xfa, 0x10, 0x07, 0x0e, 0x01, 0xf4, 0xec, 0x05, 0xe6, 0x05,
  0xf9, 0x03, 0x08, 0xf3, 0x00, 0xfe, 0xf8, 0x08, 0xf5, 0xfd, 0x05, 0xf8,
  0xe6, 0x08, 0xfb, 0x0e, 0xf2, 0xfa, 0xf6, 0xf9, 0x0b, 0x09, 0x0b, 0xf4,
  0xcb, 0x17, 0x35, 0xfe, 0x00, 0xe5, 0x0d, 0xf9, 0x07, 0x0a, 0x09, 0x04,
  0x0f, 0x02, 0x09, 0x03, 0x07, 0x01, 0xf8, 0x02, 0xfb, 0xfb, 0xfe, 0xf6,
  0xfe, 0x01, 0xe9, 0xeb, 0xf8, 0xf2, 0x00, 0x06, 0x02, 0x13, 0x06, 0x07,
  0xf9, 0xff, 0x02, 0x0d, 0xf4, 0xf8, 0x05, 0x04, 0x02, 0x03, 0x0c, 0x05,
  0xf8, 0x09, 0xeb, 0xff, 0x07, 0x00, 0xf0, 0x03, 0xf6, 0x06, 0xf6, 0x03,
  0x03, 0xff, 0x0a, 0x02, 0x0b, 0x03, 0x02, 0x05, 0x29, 0x06, 0x02, 0xef,
  0x1f, 0xff, 0x05, 0xf9, 0xf4, 0x02, 0x0d, 0xfb, 0xfb, 0x04, 0x01, 0x01,
  0x04, 0xff, 0x0d, 0x03, 0xfb, 0x00, 0xf8, 0x0a, 0xf8, 0xfc, 0x08, 0xff,
  0xfe, 0xf7, 0xe9, 0x01, 0x0e, 0x0c, 0xf5, 0xfd, 0x00, 0x06, 0xfa, 0x08,
  0xf5, 0x00, 0xed, 0xff, 0x03, 0xfa, 0xf6, 0x0b, 0xfa, 0x03, 0xf1, 0x01,
  0xe9, 0xf2, 0x02, 0x05, 0xfc, 0x02, 0x0e, 0x03, 0x0d, 0x02, 0x0d, 0x05,
  0xff, 0xfa, 0x1e, 0x02, 0xf9, 0xf1, 0x0e, 0xfd, 0x05, 0xfa, 0xf9, 0xff,
  0x07, 0x02, 0xf6, 0x03, 0x04, 0xff, 0xfa, 0xfa, 0x07, 0x04, 0x02, 0x04,
  0xf5, 0x10, 0xfa, 0xfd, 0xfa, 0x0c, 0xfa, 0xef, 0xec, 0xff, 0x0b, 0x06,
  0xfb, 0xfa, 0xf4, 0xf9, 0xf7, 0x06, 0xfb, 0x0a, 0xe8, 0x03, 0xff, 0x05,
  0x0d, 0xfd, 0xf4, 0xfe, 0xf1, 0x08, 0xee, 0xfb, 0xf6, 0x06, 0x15, 0x04,
  0xfa, 0x07, 0x06, 0xf6, 0x05, 0x04, 0xf6, 0x02, 0x1e, 0x05, 0xf4, 0xe9,
  0x06, 0x06, 0xfa, 0xfe, 0x0c, 0xfe, 0x09, 0xfe, 0xfb, 0xfc, 0xfe, 0xfe,
  0x00, 0xf6, 0xfe, 0xfe, 0x0a, 0x07, 0xfc, 0x03, 0xfa, 0xed, 0xf5, 0x0c,
  0xfd, 0xf5, 0xf1, 0xee, 0xfd, 0x07, 0x02, 0xf8, 0xfe, 0x01, 0xf2, 0xff,
  0xf5, 0x09, 0xf2, 0xfc, 0xf9, 0xfe, 0xff, 0xf7, 0xf3, 0x00, 0xf8, 0x01,
  0x02, 0x0a, 0xf6, 0x09, 0xff, 0x06, 0xf0, 0x0e, 0x14, 0xfc, 0x00, 0x07,
  0xee, 0x08, 0x2a, 0x0b, 0x01, 0xea, 0xf3, 0x00, 0xfb, 0x06, 0x22, 0x03,
  0xf1, 0xf8, 0x06, 0x02, 0xfd, 0x01, 0x01, 0x09, 0x11, 0x12, 0x0c, 0xff,
  0xea, 0x0a, 0xfc, 0xf6, 0x09, 0x10, 0xea, 0xf2, 0xf1, 0xe3, 0x0d, 0x10,
  0xfe, 0x00, 0x02, 0xf9, 0xed, 0x02, 0xfe, 0x05, 0xfc, 0xeb, 0xfc, 0xf6,
  0xfe, 0xf1, 0xef, 0xf6, 0xe1, 0x01, 0xf4, 0x0b, 0xf5, 0x07, 0xf7, 0x0f,
  0xfd, 0x12, 0x12, 0x0d, 0xd9, 0x02, 0x03, 0x08, 0x1f, 0x0b, 0xf6, 0xe0,
  0xd3, 0x00, 0x08, 0x0b, 0x20, 0x08, 0xe0, 0xf2, 0x12, 0x08, 0xf6, 0x0a,
  0xf9, 0x10, 0xfa, 0xf6, 0x14, 0xf8, 0xf8, 0xfc, 0xfc, 0xf4, 0x18, 0x15,
  0x04, 0x07, 0xd5, 0x18, 0x0a, 0x15, 0x08, 0x05, 0xe6, 0x1c, 0xd7, 0xfe,
  0xe5, 0x0d, 0xd8, 0x05, 0xcb, 0xff, 0xfe, 0xf5, 0x23, 0xfe, 0xd1, 0x09,
  0x01, 0xe9, 0x43, 0xf5, 0xf1, 0x02, 0x00, 0xec, 0xfd, 0xf8, 0xea, 0x07,
  0x35, 0xec, 0xec, 0x02, 0xf6, 0xef, 0xea, 0xd1, 0x15, 0x13, 0x09, 0xff,
  0xdd, 0xca, 0x14, 0x07, 0x0c, 0xf9, 0xd0, 0xc7, 0x10, 0x0b, 0x05, 0xf5,
  0xcc, 0xd0, 0x0e, 0xf1, 0xfe, 0xe0, 0xb5, 0xcd, 0x03, 0xd5, 0x1e, 0xef,
  0xb8, 0xff, 0x08, 0xfe, 0x03, 0x05, 0xdb, 0xfd, 0xe8, 0xf7, 0x15, 0xfd,
  0xee, 0x07, 0xf5, 0x08, 0xfa, 0xf9, 0x06, 0x15, 0x11, 0x02, 0xe3, 0xee,
  0xd2, 0xfd, 0x21, 0xe4, 0xf6, 0x0a, 0xee, 0xf6, 0x23, 0xf5, 0x01, 0xe4,
  0xd9, 0xab, 0x18, 0xf8, 0x09, 0xf3, 0xd1, 0xb4, 0x14, 0xf5, 0x15, 0xfa,
  0xc6, 0xc4, 0x11, 0xf8, 0x03, 0xf2, 0xba, 0xce, 0x0f, 0xe3, 0x07, 0xe5,
  0xd3, 0xfa, 0x05, 0xeb, 0xfd, 0xfc, 0xcc, 0x14, 0xf4, 0x0b, 0x14, 0x11,
  0xeb, 0x04, 0xcc, 0xf7, 0x0f, 0x14, 0xed, 0x11, 0xfe, 0x1a, 0xf2, 0x0a,
  0x02, 0x26, 0x20, 0xf2, 0xff, 0x10, 0xf1, 0x07, 0x11, 0xdd, 0xf9, 0x18,
  0x01, 0xef, 0x19, 0xf3, 0xcc, 0xf5, 0xc0, 0xd8, 0x1f, 0xf7, 0xfc, 0xe1,
  0xc1, 0xb8, 0x1b, 0xdb, 0x13, 0xf1, 0xb2, 0xe1, 0xf8, 0xac, 0x1f, 0x08,
  0xc3, 0xdc, 0xf0, 0xa2, 0xf9, 0xf9, 0xf4, 0xea, 0xbd, 0xe9, 0xf5, 0xfe,
  0xda, 0x01, 0xd5, 0x17, 0x0e, 0x12, 0x08, 0x07, 0xd8, 0x17, 0x0a, 0x14,
  0x0f, 0x17, 0xff, 0x21, 0x02, 0x13, 0x1a, 0x14, 0x20, 0x08, 0x04, 0x01,
  0x08, 0xee, 0x05, 0x10, 0x17, 0x14, 0x01, 0xf7, 0xcb, 0xf9, 0xba, 0xfa,
  0xa8, 0xb9, 0x09, 0x11, 0xf9, 0xe9, 0xa3, 0xf3, 0xf4, 0xe6, 0x0b, 0xf7,
  0xf0, 0xed, 0xe7, 0xc0, 0xfd, 0x06, 0xf0, 0xe9, 0xbf, 0xf9, 0xdd, 0xf9,
  0xee, 0xf4, 0xe1, 0xfb, 0xe2, 0xfb, 0xfb, 0xf7, 0xe5, 0x06, 0xef, 0x0a,
  0x06, 0xfd, 0xd3, 0x06, 0x0c, 0x18, 0x07, 0x0e, 0xd9, 0x14, 0x07, 0x0e,
  0x0c, 0x0c, 0xf1, 0x0f, 0x14, 0xf9, 0x13, 0x03, 0xdc, 0x1e, 0xf9, 0x06,
  0xf8, 0x04, 0xec, 0x08, 0xd9, 0x08, 0xe2, 0xef, 0xf2, 0xca, 0xfe, 0xe9,
  0xd9, 0xee, 0xd0, 0xf8, 0x02, 0x08, 0x10, 0xf0, 0xa1, 0xe6, 0xdf, 0x0b,
  0x02, 0xfb, 0xec, 0xde, 0xcc, 0xfd, 0x04, 0xfd, 0x14, 0xf2, 0xdb, 0x03,
  0xff, 0xe9, 0xef, 0x0c, 0x1b, 0x08, 0x06, 0xfb, 0xf6, 0x02, 0x01, 0x08,
  0xfe, 0x13, 0xf5, 0xfa, 0xf9, 0xfb, 0x09, 0x14, 0xfb, 0x09, 0x07, 0xf0,
  0x03, 0x03, 0xf8, 0x02, 0xfe, 0x02, 0x07, 0x0b, 0xf4, 0x05, 0x21, 0x15,
  0x09, 0xf9, 0xf0, 0xc7, 0xe9, 0xeb, 0x12, 0xda, 0x06, 0xf2, 0x0e, 0x03,
  0x03, 0xe2, 0xfe, 0xec, 0xe9, 0xfe, 0x09, 0x00, 0x0f, 0x07, 0xe3, 0x04,
  0x01, 0xf6, 0x16, 0x07, 0x17, 0xfd, 0xfd, 0xf1, 0xf6, 0xf9, 0x02, 0x05,
  0x00, 0x01, 0xe5, 0xfc, 0x07, 0xfb, 0x0c, 0x05, 0xed, 0xfa, 0x0e, 0xef,
  0x0b, 0x11, 0xed, 0xf8, 0x03, 0xf9, 0x16, 0x09, 0x10, 0xf7, 0xf5, 0x03,
  0x23, 0x1e, 0xf5, 0x07, 0xf7, 0x1c, 0x02, 0xe7, 0x20, 0xe4, 0x04, 0xe8,
  0xfd, 0xee, 0x13, 0xf6, 0xe7, 0xfe, 0x0a, 0xf4, 0x1c, 0x0e, 0x14, 0xf4,
  0x01, 0x05, 0x0f, 0x09, 0x18, 0xf8, 0x00, 0x0b, 0x01, 0x07, 0xff, 0x00,
  0xff, 0xf8, 0xfb, 0xfe, 0xfb, 0x02, 0x05, 0x02, 0xfd, 0xf9, 0xfa, 0x09,
  0x05, 0x07, 0x04, 0x01, 0xfb, 0xf7, 0x08, 0xfb, 0x10, 0xeb, 0xed, 0xf9,
  0x02, 0xf6, 0x0c, 0xee, 0xfd, 0xf9, 0x12, 0x19, 0x16, 0x08, 0xff, 0x1d,
  0x00, 0xec, 0x00, 0xe1, 0xff, 0xe3, 0xf7, 0xf7, 0xf8, 0xe8, 0xe9, 0x01,
  0x00, 0x17, 0xfb, 0x06, 0xf9, 0xfc, 0x05, 0x19, 0x0d, 0xfb, 0x05, 0xfb,
  0xfd, 0x04, 0x18, 0xf9, 0x0d, 0x12, 0x0f, 0x04, 0xf9, 0xfe, 0x09, 0x0f,
  0x09, 0xf4, 0xfa, 0x00, 0x07, 0xf9, 0x10, 0xfa, 0xfc, 0x04, 0xfb, 0xf8,
  0x0f, 0xf7, 0x05, 0x06, 0xf8, 0xf5, 0xf7, 0xf3, 0x0a, 0x04, 0xfc, 0xfa,
  0x00, 0x0d, 0x1e, 0x03, 0x07, 0x09, 0xfc, 0x03, 0xfb, 0xf7, 0x03, 0xdd,
  0xf6, 0xf1, 0xfd, 0xf8, 0xf6, 0xfd, 0xf6, 0x08, 0x01, 0x00, 0xf2, 0x02,
  0x04, 0x0f, 0x03, 0x02, 0xfd, 0x10, 0x03, 0x02, 0x10, 0xf3, 0x0c, 0x08,
  0x12, 0x0b, 0xfe, 0x02, 0x1b, 0xf9, 0x1b, 0xea, 0xf3, 0xfb, 0xfb, 0xfc,
  0x2d, 0xf6, 0xf7, 0x10, 0xf8, 0xeb, 0x0d, 0x05, 0x03, 0x0a, 0x03, 0xf0,
  0x02, 0xf5, 0x05, 0xfc, 0xfd, 0x14, 0xf9, 0xff, 0xfd, 0xf2, 0x00, 0x05,
  0xea, 0xf5, 0xff, 0xf8, 0xfd, 0xed, 0xf7, 0xe7, 0x01, 0xf8, 0xfa, 0xff,
  0xf4, 0xf4, 0x05, 0xfd, 0xfb, 0x02, 0xff, 0xf8, 0x06, 0xea, 0x06, 0xfd,
  0x00, 0x0f, 0x01, 0xe4, 0x04, 0xf7, 0x09, 0x0c, 0x02, 0xef, 0x04, 0xf9,
  0x0d, 0xfb, 0x04, 0xf8, 0x02, 0xd9, 0x18, 0xfe, 0x03, 0x05, 0xf2, 0xcf,
  0x1a, 0xf8, 0x00, 0xef, 0x08, 0xeb, 0xfb, 0xd8, 0x0e, 0x00, 0x03, 0x0c,
  0x09, 0xdf, 0x09, 0xea, 0x0d, 0xfc, 0xe0, 0xda, 0x04, 0xf5, 0x00, 0xdd,
  0xf6, 0xf2, 0x05, 0xfe, 0xf5, 0xf0, 0xf5, 0xf0, 0x01, 0x01, 0xfa, 0xfe,
  0xf9, 0xf5, 0x08, 0xef, 0x07, 0xfb, 0x04, 0x00, 0x03, 0xe2, 0x00, 0xfd,
  0x0b, 0x16, 0x10, 0xe4, 0xfa, 0x09, 0x10, 0x13, 0x1a, 0x00, 0xfa, 0x09,
  0xf3, 0xf7, 0x11, 0x11, 0x05, 0xbf, 0x2b, 0xc2, 0xfb, 0xef, 0x12, 0xe3,
  0xf9, 0xdc, 0x00, 0xfc, 0x01, 0x14, 0x0c, 0xd3, 0x00, 0xf2, 0x10, 0xec,
  0xde, 0x0b, 0x12, 0x14, 0xf8, 0xe4, 0xcf, 0xe9, 0x0a, 0x00, 0xd1, 0xd1,
  0xd9, 0xdd, 0xef, 0xe9, 0x03, 0xc6, 0xdc, 0xbf, 0x07, 0xee, 0xf9, 0xf8,
  0xeb, 0xa4, 0x0c, 0x13, 0x17, 0x2a, 0xf0, 0xfe, 0x0e, 0x0a, 0x1b, 0x38,
  0xef, 0xfb, 0x3a, 0xf1, 0xe5, 0x07, 0xee, 0xed, 0x18, 0xe8, 0xda, 0xf1,
  0xf4, 0xd9, 0x15, 0xc9, 0xcd, 0xea, 0x08, 0xf8, 0x0a, 0xec, 0xd8, 0x11,
  0x02, 0x07, 0x14, 0xff, 0xd6, 0x2e, 0xe3, 0x0f, 0xf4, 0xf4, 0xee, 0xf7,
  0xef, 0xf4, 0xfa, 0xf2, 0xe6, 0xf4, 0xed, 0xf0, 0xea, 0xfe, 0xeb, 0xfa,
  0xf2, 0xe4, 0xf4, 0x0a, 0x22, 0x0a, 0xeb, 0xe0, 0xf6, 0x11, 0x18, 0x0f,
  0xfe, 0xfa, 0xec, 0xf2, 0x14, 0x0b, 0xf3, 0xf0, 0x0f, 0x04, 0xe1, 0x1a,
  0xf3, 0xdd, 0x0f, 0x05, 0xec, 0x0c, 0x05, 0xe8, 0x06, 0xf3, 0xf0, 0xfb,
  0x07, 0x09, 0xfc, 0x00, 0xe1, 0x00, 0x0e, 0xff, 0x00, 0xea, 0x02, 0x07,
  0xff, 0xfd, 0xed, 0xfe, 0x09, 0xfe, 0x02, 0x08, 0x0e, 0x01, 0x00, 0x0e,
  0xf6, 0xf7, 0x07, 0x0c, 0x06, 0x01, 0xfc, 0xea, 0x03, 0x0e, 0x12, 0x03,
  0xe4, 0xf8, 0x16, 0xfe, 0xf4, 0xfc, 0xe7, 0x00, 0x08, 0xf4, 0xfc, 0xf4,
  0xef, 0xef, 0x07, 0x00, 0xf1, 0x0d, 0x0b, 0xd6, 0xed, 0x02, 0xe5, 0x05,
  0x1a, 0xea, 0xf5, 0xfa, 0xe8, 0x04, 0xfa, 0xff, 0x0d, 0xfa, 0xf0, 0x01,
  0x16, 0xfd, 0x13, 0xf5, 0x0d, 0x01, 0x14, 0x07, 0xfb, 0xd3, 0x18, 0x07,
  0x16, 0x0a, 0x10, 0xfa, 0x0c, 0x0f, 0x03, 0x01, 0x04, 0x11, 0xff, 0x07,
  0x05, 0xf9, 0xfc, 0x0e, 0x12, 0xf9, 0xee, 0xf8, 0x0e, 0x05, 0xe9, 0xf5,
  0xf0, 0x04, 0xfb, 0xf9, 0x09, 0xed, 0x01, 0xf4, 0xfb, 0xf8, 0xf8, 0xfe,
  0x10, 0xee, 0x0c, 0xf7, 0xdf, 0xfb, 0x06, 0xff, 0xe8, 0x08, 0xff, 0x00,
  0x11, 0x09, 0x0b, 0xf0, 0x05, 0xf3, 0x1b, 0x0e, 0x0d, 0xf8, 0x01, 0xfe,
  0x0b, 0x1f, 0x11, 0xe6, 0x27, 0x0a, 0x0e, 0x0a, 0x09, 0xec, 0x26, 0xfd,
  0x03, 0x0a, 0xff, 0xfa, 0xff, 0xff, 0x05, 0x01, 0xfd, 0x1b, 0x11, 0xfd,
  0xf6, 0xf4, 0x00, 0x0c, 0x13, 0xe7, 0xf8, 0xfb, 0xfe, 0xe6, 0xfe, 0xf0,
  0xff, 0xf4, 0xe9, 0xec, 0xce, 0x0e, 0x08, 0x00, 0xf8, 0xf1, 0xe8, 0x00,
  0x00, 0x02, 0xfc, 0xfd, 0xf8, 0x03, 0x0b, 0xfe, 0xe7, 0xf4, 0xe6, 0xfb,
  0x15, 0x0e, 0xf5, 0xf8, 0x03, 0x15, 0xf6, 0x19, 0xf4, 0xf2, 0x1b, 0x03,
  0xfd, 0x0f, 0xff, 0xf0, 0x17, 0xf9, 0x08, 0x06, 0xf6, 0xf1, 0x04, 0xf8,
  0xf9, 0xfc, 0x02, 0x11, 0x15, 0xff, 0x01, 0xf1, 0x0e, 0x0d, 0x0d, 0xf4,
  0x00, 0x09, 0x02, 0xfc, 0x12, 0xf4, 0x00, 0xfb, 0x00, 0xf5, 0xfe, 0x05,
  0x0e, 0x00, 0xfc, 0x01, 0xf4, 0xfd, 0x0d, 0xf9, 0xff, 0xfb, 0xef, 0xfd,
  0x01, 0x03, 0xe7, 0x0e, 0xff, 0xee, 0x12, 0x01, 0xe2, 0xfe, 0xf5, 0x17,
  0xed, 0x0d, 0xfb, 0xfe, 0x0f, 0x05, 0xfa, 0x1e, 0x04, 0xf9, 0x15, 0xff,
  0x02, 0x06, 0x00, 0xf9, 0x0b, 0xfa, 0xf9, 0x02, 0xfe, 0x07, 0x05, 0xfa,
  0xfa, 0x04, 0x06, 0x07, 0x0d, 0xef, 0xff, 0xf8, 0xfd, 0xfa, 0x0c, 0xfd,
  0x01, 0xfb, 0xff, 0x08, 0xff, 0x08, 0x07, 0xff, 0xf1, 0x01, 0x01, 0xfc,
  0x00, 0x01, 0x05, 0xf7, 0xf5, 0xf7, 0x00, 0x06, 0xf0, 0x05, 0x0f, 0x00,
  0xfd, 0xf5, 0xfb, 0x07, 0x08, 0x17, 0x04, 0x15, 0x04, 0xf8, 0x03, 0x0a,
  0x00, 0x22, 0x07, 0xfd, 0x16, 0xfd, 0xfa, 0x0d, 0x01, 0xfc, 0x03, 0x02,
  0xff, 0x0e, 0x0f, 0x02, 0x05, 0xf5, 0xff, 0x0b, 0x08, 0x02, 0x00, 0xe3,
  0x10, 0xfd, 0x0e, 0x06, 0xe9, 0xf7, 0xff, 0x03, 0xfd, 0x13, 0x13, 0xf6,
  0x08, 0xfb, 0xf6, 0x07, 0x11, 0xfb, 0xff, 0x09, 0x01, 0x0b, 0xf9, 0xef,
  0x05, 0x03, 0xfa, 0x07, 0x09, 0x07, 0x07, 0xf7, 0x05, 0x03, 0x12, 0x1f,
  0x07, 0x1d, 0xf9, 0xfb, 0x09, 0x0f, 0x08, 0x1c, 0xf6, 0xfb, 0x0b, 0x00,
  0xfd, 0x09, 0x01, 0x08, 0x02, 0x06, 0x05, 0x07, 0xfc, 0x02, 0xfa, 0x02,
  0x07, 0x0e, 0x00, 0xfb, 0xfa, 0xfd, 0x0b, 0x05, 0x0c, 0x00, 0xf1, 0xfd,
  0x0e, 0x08, 0xff, 0x11, 0x06, 0xfa, 0x07, 0x00, 0xf6, 0x08, 0xf9, 0x05,
  0xfc, 0x02, 0x00, 0x0a, 0xf9, 0xf8, 0x09, 0xfd, 0xf4, 0x0d, 0x05, 0x00,
  0x01, 0x0b, 0x08, 0x0f, 0x09, 0x12, 0x11, 0x21, 0xfa, 0x09, 0x1a, 0x0b,
  0x15, 0x13, 0xf1, 0xf9, 0xf5, 0xf8, 0xf9, 0x03, 0x01, 0xfd, 0x04, 0x09,
  0x01, 0x12, 0x02, 0x0a, 0xff, 0x06, 0x06, 0x15, 0x09, 0x04, 0xff, 0x06,
  0x05, 0x14, 0x0b, 0xff, 0x01, 0xf8, 0x02, 0x0d, 0xec, 0xfe, 0xfd, 0xf4,
  0x07, 0x0b, 0xf6, 0x15, 0xf8, 0x05, 0x08, 0xfc, 0xfb, 0x00, 0xf6, 0xf0,
  0x0f, 0x0d, 0xff, 0x14, 0x00, 0x00, 0x0b, 0x0f, 0xfb, 0x1c, 0x14, 0x0b,
  0x1c, 0x16, 0x10, 0xfc, 0x1b, 0x06, 0x2b, 0x08, 0xed, 0xf4, 0x1d, 0xef,
  0x19, 0x10, 0xea, 0x0e, 0xff, 0x04, 0x09, 0x0d, 0xf2, 0x20, 0x05, 0x01,
  0x03, 0x13, 0x01, 0x0d, 0x0d, 0x0a, 0x09, 0x15, 0x05, 0x0e, 0xfe, 0xf7,
  0x06, 0x17, 0xf1, 0x07, 0x11, 0xf1, 0xfb, 0x0b, 0xf9, 0x18, 0xf7, 0x00,
  0x21, 0xf7, 0x03, 0x05, 0x01, 0xd7, 0x25, 0xea, 0x00, 0x11, 0xfd, 0xe5,
  0x1f, 0xef, 0x09, 0x0d, 0x16, 0xf0, 0xd6, 0xc3, 0x06, 0xde, 0x0a, 0xed,
  0xda, 0xcd, 0x08, 0xe2, 0x07, 0xf9, 0xe2, 0xc9, 0x09, 0xde, 0x13, 0xfb,
  0xf5, 0xfb, 0x02, 0xe9, 0x0f, 0x04, 0x06, 0x06, 0xf8, 0xed, 0x06, 0x05,
  0x0d, 0x02, 0x11, 0xea, 0x07, 0x02, 0x12, 0xfe, 0x15, 0xf4, 0xf4, 0x03,
  0x08, 0xf9, 0xf6, 0x01, 0xfb, 0xff, 0x0d, 0xf9, 0xed, 0x06, 0xf8, 0xfd,
  0x10, 0xfd, 0xe1, 0x0e, 0x0d, 0xfd, 0xfa, 0x0a, 0xde, 0x1f, 0xf8, 0x27,
  0xc7, 0xbc, 0x07, 0xdd, 0x03, 0xee, 0xda, 0xc9, 0x04, 0xe8, 0xfa, 0xf0,
  0xdc, 0xe8, 0x05, 0xd8, 0x0e, 0xff, 0xe5, 0xfb, 0x08, 0xf3, 0x11, 0x0b,
  0xf9, 0x0d, 0xf7, 0xf9, 0x08, 0xff, 0x02, 0xf9, 0xf5, 0xfb, 0x07, 0x00,
  0x06, 0x08, 0x09, 0xf8, 0xf0, 0x01, 0x1b, 0x07, 0x05, 0x02, 0xfb, 0xf4,
  0x12, 0xf4, 0xee, 0x0f, 0xed, 0xf5, 0x25, 0xff, 0xe6, 0x16, 0x09, 0x02,
  0x11, 0x14, 0xfb, 0x21, 0x02, 0x2c, 0xd0, 0xbd, 0x0d, 0xde, 0xfe, 0xe9,
  0xd6, 0xd6, 0x0c, 0xe3, 0x06, 0xf4, 0xbe, 0x01, 0x0e, 0xdc, 0x0e, 0x08,
  0xe1, 0x04, 0x06, 0x00, 0x05, 0x09, 0xec, 0x12, 0xf6, 0xf4, 0x12, 0x0a,
  0x0d, 0x08, 0x03, 0xed, 0xfc, 0x04, 0x02, 0x00, 0xfb, 0xf1, 0xff, 0xf9,
  0x01, 0x09, 0xf8, 0xf2, 0x07, 0x03, 0xfa, 0xff, 0xec, 0x13, 0x03, 0x0b,
  0x05, 0x0a, 0xee, 0x09, 0xfd, 0xf7, 0x1f, 0x0a, 0xec, 0x0e, 0xf2, 0x1f,
  0xc9, 0xb4, 0x0e, 0xda, 0xfa, 0xee, 0xc5, 0xd8, 0x19, 0xd7, 0x03, 0xf1,
  0xc5, 0xcd, 0x02, 0xc7, 0x0e, 0x0b, 0xfb, 0xfa, 0x0d, 0xf0, 0x0e, 0x0c,
  0x04, 0x18, 0xe5, 0xfb, 0x07, 0x0a, 0xff, 0x07, 0xea, 0x06, 0xff, 0x04,
  0x06, 0x06, 0x0a, 0xf5, 0xf9, 0xfc, 0x0a, 0x02, 0x02, 0xfa, 0x07, 0x02,
  0x0a, 0x02, 0xe3, 0x0e, 0xf4, 0x09, 0x03, 0x0a, 0xda, 0x09, 0xf7, 0x06,
  0x1a, 0x11, 0xf4, 0x11, 0xe9, 0x1a, 0xb9, 0xc7, 0x0b, 0x04, 0xa8, 0xc6,
  0xac, 0xc1, 0x15, 0xfe, 0xee, 0xdf, 0xde, 0xeb, 0x0a, 0xe3, 0x16, 0x07,
  0x08, 0xf3, 0xed, 0xf8, 0x07, 0x12, 0x04, 0x04, 0xea, 0xf9, 0x1c, 0x0f,
  0x04, 0x0b, 0x04, 0xf8, 0xf9, 0x08, 0x0f, 0x04, 0xf9, 0xfe, 0x0b, 0x06,
  0x06, 0xff, 0xfa, 0x04, 0x00, 0x06, 0x02, 0xf8, 0xf1, 0x17, 0xf3, 0x07,
  0xfc, 0x0a, 0xed, 0x0c, 0xf7, 0x03, 0x04, 0x0b, 0xee, 0x0c, 0xdb, 0x18,
  0x09, 0xe9, 0x08, 0x2e, 0xc0, 0xba, 0xea, 0xf6, 0x1c, 0xfa, 0xca, 0xce,
  0xf4, 0xe7, 0xfa, 0x07, 0x0c, 0x01, 0xfe, 0xec, 0xc3, 0x0e, 0x15, 0x0b,
  0x00, 0x00, 0xd7, 0x03, 0xfb, 0x0e, 0x0c, 0x05, 0x19, 0x07, 0x0d, 0x0c,
  0x0f, 0x06, 0x02, 0xf1, 0x08, 0x06, 0xf7, 0x04, 0xf7, 0xfd, 0x04, 0xfc,
  0xf8, 0xff, 0x0f, 0x02, 0xfd, 0xef, 0xf6, 0xf5, 0xe6, 0x06, 0x01, 0xf5,
  0xfe, 0xfe, 0xeb, 0xfd, 0xed, 0x0a, 0x0c, 0xfc, 0xf9, 0xf6, 0xca, 0xcd,
  0xfe, 0xe4, 0xed, 0xb7, 0xe5, 0xdb, 0x01, 0xc9, 0xc4, 0xda, 0xe6, 0xff,
  0x06, 0xe9, 0xf6, 0xfa, 0xe0, 0x0a, 0x0f, 0xf6, 0xf4, 0xf7, 0xf9, 0x0b,
  0x03, 0x06, 0xf2, 0xfd, 0x09, 0x0b, 0x09, 0x09, 0x05, 0xf8, 0x0a, 0xf7,
  0xfc, 0x05, 0x0b, 0xf2, 0xf1, 0xf4, 0xfb, 0xfe, 0x04, 0xfe, 0x08, 0xf4,
  0x04, 0xf7, 0xe0, 0x09, 0x00, 0xfb, 0xfd, 0xf4, 0xde, 0xfb, 0xfe, 0xfa,
  0x0b, 0x1e, 0x1d, 0x0c, 0x1a, 0xd1, 0xfd, 0xdc, 0xfb, 0xdf, 0x1d, 0xd9,
  0x09, 0xea, 0xed, 0xdd, 0x08, 0xf3, 0x0b, 0xe8, 0xde, 0xfa, 0xf7, 0x01,
  0x13, 0xff, 0xdf, 0x03, 0xf7, 0x04, 0x03, 0x03, 0x08, 0x0c, 0xfa, 0x01,
  0xff, 0x0c, 0x0d, 0x02, 0xe6, 0xf7, 0xf7, 0x02, 0x00, 0xf4, 0xff, 0xf3,
  0xfb, 0x04, 0x05, 0x01, 0xfd, 0x07, 0x0d, 0xf4, 0xf7, 0x07, 0xf6, 0x08,
  0xf6, 0x05, 0xf2, 0x05, 0xdc, 0x04, 0x0a, 0x0f, 0x0c, 0x01, 0x0a, 0xdf,
  0xf9, 0xf3, 0x00, 0xef, 0x04, 0xe0, 0x06, 0xf4, 0x05, 0xd4, 0x09, 0xed,
  0x03, 0xf2, 0xef, 0xf6, 0x04, 0xf1, 0x08, 0xfe, 0xeb, 0xf9, 0xe9, 0xfd,
  0xfd, 0xfa, 0x05, 0xf4, 0xd3, 0x00, 0xef, 0x10, 0x09, 0x01, 0xf4, 0xfc,
  0xea, 0x02, 0x02, 0xf1, 0x1a, 0x06, 0x00, 0xf2, 0x0b, 0x05, 0xf3, 0x0e,
  0xfe, 0xfc, 0x01, 0x17, 0x15, 0xfd, 0x03, 0xff, 0xfe, 0x0d, 0x01, 0x07,
  0x16, 0x10, 0xfe, 0x0d, 0x0c, 0xdb, 0x00, 0xf0, 0x04, 0xf9, 0x00, 0xde,
  0x0f, 0x02, 0x00, 0xed, 0x00, 0xf0, 0x0b, 0x08, 0xfc, 0x05, 0xfa, 0xf5,
  0x06, 0xfa, 0xff, 0x11, 0xf0, 0x06, 0x08, 0xf9, 0xfd, 0x08, 0xf0, 0x09,
  0x05, 0x04, 0x02, 0x10, 0x02, 0x0a, 0x02, 0x08, 0x03, 0xf2, 0x0b, 0x19,
  0xfe, 0xfd, 0x03, 0x0a, 0xfd, 0x11, 0x18, 0x14, 0x04, 0x13, 0x04, 0x0b,
  0x06, 0x18, 0x09, 0x18, 0xff, 0x0f, 0x12, 0x1b, 0x06, 0x07, 0x19, 0xf4,
  0x06, 0xe5, 0xfa, 0xe3, 0x07, 0xe1, 0x03, 0xf4, 0xfa, 0xe4, 0xfa, 0xe9,
  0x11, 0x08, 0x02, 0xfd, 0xf7, 0xf7, 0xff, 0xeb, 0x09, 0x12, 0xf5, 0xfe,
  0xf6, 0xea, 0xfe, 0x03, 0x00, 0xff, 0xfe, 0x00, 0x02, 0x03, 0x04, 0x05,
  0x13, 0x03, 0x0a, 0xe8, 0x06, 0x2d, 0xf3, 0x22, 0x0f, 0x04, 0x04, 0x07,
  0x1b, 0x0d, 0x07, 0x03, 0x05, 0x07, 0xfb, 0x0f, 0x14, 0x08, 0xfb, 0x0f,
  0x00, 0x00, 0x00, 0x00, 0x00, 0x00, 0x00, 0x00, 0xe6, 0xfe, 0xff, 0xff,
  0x04, 0x00, 0x00, 0x00, 0x08, 0x00, 0x00, 0x00, 0xff, 0xff, 0xff, 0xff,
  0xd6, 0x02, 0x00, 0x00, 0x00, 0x00, 0x00, 0x00, 0x00, 0x00, 0x00, 0x00,
  0x00, 0x00, 0x00, 0x00, 0x06, 0xff, 0xff, 0xff, 0x04, 0x00, 0x00, 0x00,
  0x28, 0x00, 0x00, 0x00, 0xc9, 0x00, 0x00, 0x00, 0xd2, 0xfe, 0xff, 0xff,
  0x43, 0x02, 0x00, 0x00, 0x4c, 0x00, 0x00, 0x00, 0xf5, 0xfc, 0xff, 0xff,
  0x04, 0xff, 0xff, 0xff, 0x63, 0x00, 0x00, 0x00, 0x4c, 0x01, 0x00, 0x00,
  0x1b, 0x00, 0x00, 0x00, 0x2d, 0x00, 0x00, 0x00, 0x00, 0x00, 0x00, 0x00,
  0xa4, 0xf5, 0xff, 0xff, 0x00, 0x00, 0x00, 0x00, 0x00, 0x00, 0x00, 0x00,
  0x00, 0x00, 0x00, 0x00, 0xb4, 0xf5, 0xff, 0xff, 0x0f, 0x00, 0x00, 0x00,
  0x4d, 0x4c, 0x49, 0x52, 0x20, 0x43, 0x6f, 0x6e, 0x76, 0x65, 0x72, 0x74,
  0x65, 0x64, 0x2e, 0x00, 0x01, 0x00, 0x00, 0x00, 0x14, 0x00, 0x00, 0x00,
  0x00, 0x00, 0x0e, 0x00, 0x18, 0x00, 0x04, 0x00, 0x08, 0x00, 0x0c, 0x00,
  0x10, 0x00, 0x14, 0x00, 0x0e, 0x00, 0x00, 0x00, 0x34, 0x02, 0x00, 0x00,
  0x28, 0x02, 0x00, 0x00, 0x1c, 0x02, 0x00, 0x00, 0x14, 0x00, 0x00, 0x00,
  0x04, 0x00, 0x00, 0x00, 0x04, 0x00, 0x00, 0x00, 0x6d, 0x61, 0x69, 0x6e,
  0x00, 0x00, 0x00, 0x00, 0x08, 0x00, 0x00, 0x00, 0xe0, 0x01, 0x00, 0x00,
  0x88, 0x01, 0x00, 0x00, 0x24, 0x01, 0x00, 0x00, 0xd4, 0x00, 0x00, 0x00,
  0xac, 0x00, 0x00, 0x00, 0x74, 0x00, 0x00, 0x00, 0x28, 0x00, 0x00, 0x00,
  0x04, 0x00, 0x00, 0x00, 0x4a, 0xfe, 0xff, 0xff, 0x06, 0x00, 0x00, 0x00,
  0x10, 0x00, 0x00, 0x00, 0x04, 0x00, 0x00, 0x00, 0x01, 0x00, 0x00, 0x00,
  0x0f, 0x00, 0x00, 0x00, 0x01, 0x00, 0x00, 0x00, 0x0d, 0x00, 0x00, 0x00,
  0x22, 0xff, 0xff, 0xff, 0x00, 0x00, 0x00, 0x09, 0x04, 0x00, 0x00, 0x00,
  0x24, 0x00, 0x00, 0x00, 0x18, 0x00, 0x00, 0x00, 0x0c, 0x00, 0x00, 0x00,
  0x00, 0x00, 0x06, 0x00, 0x08, 0x00, 0x04, 0x00, 0x06, 0x00, 0x00, 0x00,
  0x00, 0x00, 0x80, 0x3f, 0x01, 0x00, 0x00, 0x00, 0x0d, 0x00, 0x00, 0x00,
  0x01, 0x00, 0x00, 0x00, 0x0c, 0x00, 0x00, 0x00, 0x00, 0x00, 0x0e, 0x00,
  0x18, 0x00, 0x08, 0x00, 0x0c, 0x00, 0x10, 0x00, 0x07, 0x00, 0x14, 0x00,
  0x0e, 0x00, 0x00, 0x00, 0x00, 0x00, 0x00, 0x08, 0x03, 0x00, 0x00, 0x00,
  0x18, 0x00, 0x00, 0x00, 0x0c, 0x00, 0x00, 0x00, 0x04, 0x00, 0x00, 0x00,
  0xac, 0xf6, 0xff, 0xff, 0x01, 0x00, 0x00, 0x00, 0x0c, 0x00, 0x00, 0x00,
  0x03, 0x00, 0x00, 0x00, 0x0b, 0x00, 0x00, 0x00, 0x03, 0x00, 0x00, 0x00,
  0x01, 0x00, 0x00, 0x00, 0xe6, 0xfe, 0xff, 0xff, 0x02, 0x00, 0x00, 0x00,
  0x10, 0x00, 0x00, 0x00, 0x04, 0x00, 0x00, 0x00, 0x01, 0x00, 0x00, 0x00,
  0x0b, 0x00, 0x00, 0x00, 0x02, 0x00, 0x00, 0x00, 0x0a, 0x00, 0x00, 0x00,
  0x02, 0x00, 0x00, 0x00, 0x62, 0xff, 0xff, 0xff, 0x00, 0x00, 0x00, 0x01,
  0x24, 0x00, 0x00, 0x00, 0x18, 0x00, 0x00, 0x00, 0x04, 0x00, 0x00, 0x00,
  0x54, 0xff, 0xff, 0xff, 0x00, 0x00, 0x01, 0x01, 0x01, 0x00, 0x00, 0x00,
  0x01, 0x00, 0x00, 0x00, 0x01, 0x00, 0x00, 0x00, 0x0a, 0x00, 0x00, 0x00,
  0x03, 0x00, 0x00, 0x00, 0x09, 0x00, 0x00, 0x00, 0x05, 0x00, 0x00, 0x00,
  0x07, 0x00, 0x00, 0x00, 0x00, 0x00, 0x0e, 0x00, 0x1a, 0x00, 0x08, 0x00,
  0x0c, 0x00, 0x10, 0x00, 0x07, 0x00, 0x14, 0x00, 0x0e, 0x00, 0x00, 0x00,
  0x00, 0x00, 0x00, 0x05, 0x01, 0x00, 0x00, 0x00, 0x3c, 0x00, 0x00, 0x00,
  0x30, 0x00, 0x00, 0x00, 0x14, 0x00, 0x00, 0x00, 0x00, 0x00, 0x0e, 0x00,
  0x18, 0x00, 0x07, 0x00, 0x08, 0x00, 0x0c, 0x00, 0x10, 0x00, 0x14, 0x00,
  0x0e, 0x00, 0x00, 0x00, 0x00, 0x00, 0x00, 0x01, 0x02, 0x00, 0x00, 0x00,
  0x02, 0x00, 0x00, 0x00, 0x02, 0x00, 0x00, 0x00, 0x02, 0x00, 0x00, 0x00,
  0x01, 0x00, 0x00, 0x00, 0x09, 0x00, 0x00, 0x00, 0x01, 0x00, 0x00, 0x00,
  0x08, 0x00, 0x00, 0x00, 0x00, 0x00, 0x0e, 0x00, 0x14, 0x00, 0x00, 0x00,
  0x08, 0x00, 0x0c, 0x00, 0x07, 0x00, 0x10, 0x00, 0x0e, 0x00, 0x00, 0x00,
  0x00, 0x00, 0x00, 0x01, 0x30, 0x00, 0x00, 0x00, 0x24, 0x00, 0x00, 0x00,
  0x10, 0x00, 0x00, 0x00, 0x0c, 0x00, 0x10, 0x00, 0x06, 0x00, 0x08, 0x00,
  0x0c, 0x00, 0x07, 0x00, 0x0c, 0x00, 0x00, 0x00, 0x00, 0x00, 0x01, 0x01,
  0x01, 0x00, 0x00, 0x00, 0x01, 0x00, 0x00, 0x00, 0x01, 0x00, 0x00, 0x00,
  0x08, 0x00, 0x00, 0x00, 0x03, 0x00, 0x00, 0x00, 0x00, 0x00, 0x00, 0x00,
  0x04, 0x00, 0x00, 0x00, 0x06, 0x00, 0x00, 0x00, 0x00, 0x00, 0x0a, 0x00,
  0x10, 0x00, 0x04, 0x00, 0x08, 0x00, 0x0c, 0x00, 0x0a, 0x00, 0x00, 0x00,
  0x05, 0x00, 0x00, 0x00, 0x10, 0x00, 0x00, 0x00, 0x04, 0x00, 0x00, 0x00,
  0x01, 0x00, 0x00, 0x00, 0x00, 0x00, 0x00, 0x00, 0x01, 0x00, 0x00, 0x00,
  0x0e, 0x00, 0x00, 0x00, 0x01, 0x00, 0x00, 0x00, 0x0f, 0x00, 0x00, 0x00,
  0x01, 0x00, 0x00, 0x00, 0x0e, 0x00, 0x00, 0x00, 0x10, 0x00, 0x00, 0x00,
  0xdc, 0x08, 0x00, 0x00, 0x30, 0x08, 0x00, 0x00, 0xc0, 0x07, 0x00, 0x00,
  0x1c, 0x07, 0x00, 0x00, 0x08, 0x06, 0x00, 0x00, 0xf4, 0x04, 0x00, 0x00,
  0x60, 0x04, 0x00, 0x00, 0xcc, 0x03, 0x00, 0x00, 0x50, 0x03, 0x00, 0x00,
  0x9c, 0x02, 0x00, 0x00, 0x20, 0x02, 0x00, 0x00, 0x74, 0x01, 0x00, 0x00,
  0xd0, 0x00, 0x00, 0x00, 0x74, 0x00, 0x00, 0x00, 0x3c, 0x00, 0x00, 0x00,
  0x04, 0x00, 0x00, 0x00, 0xd8, 0xff, 0xff, 0xff, 0x18, 0x00, 0x00, 0x00,
  0x04, 0x00, 0x00, 0x00, 0x08, 0x00, 0x00, 0x00, 0x49, 0x64, 0x65, 0x6e,
  0x74, 0x69, 0x74, 0x79, 0x00, 0x00, 0x00, 0x00, 0x02, 0x00, 0x00, 0x00,
  0x01, 0x00, 0x00, 0x00, 0x0a, 0x00, 0x00, 0x00, 0x0c, 0x00, 0x0c, 0x00,
  0x04, 0x00, 0x00, 0x00, 0x00, 0x00, 0x08, 0x00, 0x0c, 0x00, 0x00, 0x00,
  0x1c, 0x00, 0x00, 0x00, 0x04, 0x00, 0x00, 0x00, 0x0e, 0x00, 0x00, 0x00,
  0x63, 0x6f, 0x6e, 0x76, 0x32, 0x64, 0x5f, 0x32, 0x5f, 0x69, 0x6e, 0x70,
  0x75, 0x74, 0x00, 0x00, 0x04, 0x00, 0x00, 0x00, 0x01, 0x00, 0x00, 0x00,
  0x1c, 0x00, 0x00, 0x00, 0x1c, 0x00, 0x00, 0x00, 0x01, 0x00, 0x00, 0x00,
  0xda, 0xf7, 0xff, 0xff, 0x00, 0x00, 0x00, 0x09, 0x44, 0x00, 0x00, 0x00,
  0x0e, 0x00, 0x00, 0x00, 0x28, 0x00, 0x00, 0x00, 0x04, 0x00, 0x00, 0x00,
  0x74, 0xf8, 0xff, 0xff, 0x14, 0x00, 0x00, 0x00, 0x04, 0x00, 0x00, 0x00,
  0x01, 0x00, 0x00, 0x00, 0x80, 0xff, 0xff, 0xff, 0xff, 0xff, 0xff, 0xff,
  0x01, 0x00, 0x00, 0x00, 0x00, 0x00, 0x80, 0x3b, 0x0d, 0x00, 0x00, 0x00,
  0x49, 0x64, 0x65, 0x6e, 0x74, 0x69, 0x74, 0x79, 0x5f, 0x69, 0x6e, 0x74,
  0x38, 0x00, 0x00, 0x00, 0x02, 0x00, 0x00, 0x00, 0x01, 0x00, 0x00, 0x00,
  0x0a, 0x00, 0x00, 0x00, 0x32, 0xf8, 0xff, 0xff, 0x00, 0x00, 0x00, 0x09,
  0x8c, 0x00, 0x00, 0x00, 0x0d, 0x00, 0x00, 0x00, 0x40, 0x00, 0x00, 0x00,
  0x04, 0x00, 0x00, 0x00, 0x24, 0xf8, 0xff, 0xff, 0x2c, 0x00, 0x00, 0x00,
  0x20, 0x00, 0x00, 0x00, 0x14, 0x00, 0x00, 0x00, 0x04, 0x00, 0x00, 0x00,
  0x01, 0x00, 0x00, 0x00, 0x2f, 0x00, 0x00, 0x00, 0x00, 0x00, 0x00, 0x00,
  0x01, 0x00, 0x00, 0x00, 0x77, 0xc1, 0x60, 0x3f, 0x01, 0x00, 0x00, 0x00,
  0x95, 0x7c, 0x8c, 0x42, 0x01, 0x00, 0x00, 0x00, 0x6b, 0xa2, 0x19, 0xc3,
  0x3e, 0x00, 0x00, 0x00, 0x73, 0x65, 0x71, 0x75, 0x65, 0x6e, 0x74, 0x69,
  0x61, 0x6c, 0x5f, 0x31, 0x2f, 0x64, 0x65, 0x6e, 0x73, 0x65, 0x5f, 0x31,
  0x2f, 0x42, 0x69, 0x61, 0x73, 0x41, 0x64, 0x64, 0x40, 0x5f, 0x5f, 0x69,
  0x6e, 0x66, 0x65, 0x72, 0x65, 0x6e, 0x63, 0x65, 0x5f, 0x5f, 0x77, 0x72,
  0x61, 0x70, 0x70, 0x65, 0x64, 0x5f, 0x6d, 0x6f, 0x64, 0x65, 0x6c, 0x5f,
  0x31, 0x31, 0x39, 0x32, 0x33, 0x34, 0x00, 0x00, 0x02, 0x00, 0x00, 0x00,
  0x01, 0x00, 0x00, 0x00, 0x0a, 0x00, 0x00, 0x00, 0xd2, 0xf8, 0xff, 0xff,
  0x00, 0x00, 0x00, 0x09, 0x94, 0x00, 0x00, 0x00, 0x0c, 0x00, 0x00, 0x00,
  0x44, 0x00, 0x00, 0x00, 0x04, 0x00, 0x00, 0x00, 0xc4, 0xf8, 0xff, 0xff,
  0x30, 0x00, 0x00, 0x00, 0x24, 0x00, 0x00, 0x00, 0x18, 0x00, 0x00, 0x00,
  0x04, 0x00, 0x00, 0x00, 0x01, 0x00, 0x00, 0x00, 0x80, 0xff, 0xff, 0xff,
  0xff, 0xff, 0xff, 0xff, 0x00, 0x00, 0x00, 0x00, 0x01, 0x00, 0x00, 0x00,
  0x8f, 0x6d, 0x3b, 0x3d, 0x01, 0x00, 0x00, 0x00, 0x21, 0xb2, 0x3a, 0x41,
  0x01, 0x00, 0x00, 0x00, 0x00, 0x00, 0x00, 0x00, 0x40, 0x00, 0x00, 0x00,
  0x73, 0x65, 0x71, 0x75, 0x65, 0x6e, 0x74, 0x69, 0x61, 0x6c, 0x5f, 0x31,
  0x2f, 0x66, 0x6c, 0x61, 0x74, 0x74, 0x65, 0x6e, 0x5f, 0x31, 0x2f, 0x52,
  0x65, 0x73, 0x68, 0x61, 0x70, 0x65, 0x40, 0x5f, 0x5f, 0x69, 0x6e, 0x66,
  0x65, 0x72, 0x65, 0x6e, 0x63, 0x65, 0x5f, 0x5f, 0x77, 0x72, 0x61, 0x70,
  0x70, 0x65, 0x64, 0x5f, 0x6d, 0x6f, 0x64, 0x65, 0x6c, 0x5f, 0x31, 0x31,
  0x39, 0x32, 0x33, 0x34, 0x00, 0x00, 0x00, 0x00, 0x02, 0x00, 0x00, 0x00,
  0x01, 0x00, 0x00, 0x00, 0xd6, 0x02, 0x00, 0x00, 0x7a, 0xf9, 0xff, 0xff,
  0x00, 0x00, 0x00, 0x09, 0x5c, 0x00, 0x00, 0x00, 0x0b, 0x00, 0x00, 0x00,
  0x40, 0x00, 0x00, 0x00, 0x04, 0x00, 0x00, 0x00, 0x6c, 0xf9, 0xff, 0xff,
  0x2c, 0x00, 0x00, 0x00, 0x20, 0x00, 0x00, 0x00, 0x14, 0x00, 0x00, 0x00,
  0x04, 0x00, 0x00, 0x00, 0x01, 0x00, 0x00, 0x00, 0x80, 0xff, 0xff, 0xff,
  0xff, 0xff, 0xff, 0xff, 0x01, 0x00, 0x00, 0x00, 0x8f, 0x6d, 0x3b, 0x3d,
  0x01, 0x00, 0x00, 0x00, 0x21, 0xb2, 0x3a, 0x41, 0x01, 0x00, 0x00, 0x00,
  0x00, 0x00, 0x00, 0x00, 0x0c, 0x00, 0x00, 0x00, 0x74, 0x66, 0x6c, 0x2e,
  0x63, 0x6f, 0x6e, 0x76, 0x5f, 0x32, 0x64, 0x31, 0x00, 0x00, 0x00, 0x00,
  0x04, 0x00, 0x00, 0x00, 0x01, 0x00, 0x00, 0x00, 0x0b, 0x00, 0x00, 0x00,
  0x0b, 0x00, 0x00, 0x00, 0x06, 0x00, 0x00, 0x00, 0xf2, 0xf9, 0xff, 0xff,
  0x00, 0x00, 0x00, 0x09, 0x94, 0x00, 0x00, 0x00, 0x0a, 0x00, 0x00, 0x00,
  0x40, 0x00, 0x00, 0x00, 0x04, 0x00, 0x00, 0x00, 0xe4, 0xf9, 0xff, 0xff,
  0x2c, 0x00, 0x00, 0x00, 0x20, 0x00, 0x00, 0x00, 0x14, 0x00, 0x00, 0x00,
  0x04, 0x00, 0x00, 0x00, 0x01, 0x00, 0x00, 0x00, 0x80, 0xff, 0xff, 0xff,
  0xff, 0xff, 0xff, 0xff, 0x01, 0x00, 0x00, 0x00, 0x3e, 0xd5, 0x71, 0x3c,
  0x01, 0x00, 0x00, 0x00, 0x69, 0xe3, 0x70, 0x40, 0x01, 0x00, 0x00, 0x00,
  0x00, 0x00, 0x00, 0x00, 0x46, 0x00, 0x00, 0x00, 0x73, 0x65, 0x71, 0x75,
  0x65, 0x6e, 0x74, 0x69, 0x61, 0x6c, 0x5f, 0x31, 0x2f, 0x6d, 0x61, 0x78,
  0x5f, 0x70, 0x6f, 0x6f, 0x6c, 0x69, 0x6e, 0x67, 0x32, 0x64, 0x5f, 0x31,
  0x2f, 0x4d, 0x61, 0x78, 0x50, 0x6f, 0x6f, 0x6c, 0x40, 0x5f, 0x5f, 0x69,
  0x6e, 0x66, 0x65, 0x72, 0x65, 0x6e, 0x63, 0x65, 0x5f, 0x5f, 0x77, 0x72,
  0x61, 0x70, 0x70, 0x65, 0x64, 0x5f, 0x6d, 0x6f, 0x64, 0x65, 0x6c, 0x5f,
  0x31, 0x31, 0x39, 0x32, 0x33, 0x34, 0x00, 0x00, 0x04, 0x00, 0x00, 0x00,
  0x01, 0x00, 0x00, 0x00, 0x0d, 0x00, 0x00, 0x00, 0x0d, 0x00, 0x00, 0x00,
  0x06, 0x00, 0x00, 0x00, 0xa2, 0xfa, 0xff, 0xff, 0x00, 0x00, 0x00, 0x09,
  0x5c, 0x00, 0x00, 0x00, 0x09, 0x00, 0x00, 0x00, 0x44, 0x00, 0x00, 0x00,
  0x04, 0x00, 0x00, 0x00, 0x94, 0xfa, 0xff, 0xff, 0x30, 0x00, 0x00, 0x00,
  0x24, 0x00, 0x00, 0x00, 0x18, 0x00, 0x00, 0x00, 0x04, 0x00, 0x00, 0x00,
  0x01, 0x00, 0x00, 0x00, 0x80, 0xff, 0xff, 0xff, 0xff, 0xff, 0xff, 0xff,
  0x00, 0x00, 0x00, 0x00, 0x01, 0x00, 0x00, 0x00, 0x3e, 0xd5, 0x71, 0x3c,
  0x01, 0x00, 0x00, 0x00, 0x69, 0xe3, 0x70, 0x40, 0x01, 0x00, 0x00, 0x00,
  0x00, 0x00, 0x00, 0x00, 0x0b, 0x00, 0x00, 0x00, 0x74, 0x66, 0x6c, 0x2e,
  0x63, 0x6f, 0x6e, 0x76, 0x5f, 0x32, 0x64, 0x00, 0x04, 0x00, 0x00, 0x00,
  0x01, 0x00, 0x00, 0x00, 0x1a, 0x00, 0x00, 0x00, 0x1a, 0x00, 0x00, 0x00,
  0x06, 0x00, 0x00, 0x00, 0x1a, 0xfb, 0xff, 0xff, 0x00, 0x00, 0x00, 0x02,
  0x80, 0x00, 0x00, 0x00, 0x08, 0x00, 0x00, 0x00, 0x64, 0x00, 0x00, 0x00,
  0x04, 0x00, 0x00, 0x00, 0xb4, 0xfb, 0xff, 0xff, 0x3c, 0x00, 0x00, 0x00,
  0x04, 0x00, 0x00, 0x00, 0x06, 0x00, 0x00, 0x00, 0x00, 0x00, 0x00, 0x00,
  0x00, 0x00, 0x00, 0x00, 0x00, 0x00, 0x00, 0x00, 0x00, 0x00, 0x00, 0x00,
  0x00, 0x00, 0x00, 0x00, 0x00, 0x00, 0x00, 0x00, 0x00, 0x00, 0x00, 0x00,
  0x00, 0x00, 0x00, 0x00, 0x00, 0x00, 0x00, 0x00, 0x00, 0x00, 0x00, 0x00,
  0x00, 0x00, 0x00, 0x00, 0x00, 0x00, 0x00, 0x00, 0x06, 0x00, 0x00, 0x00,
  0xb2, 0xe1, 0x31, 0x39, 0xa5, 0x92, 0x23, 0x39, 0x5c, 0xa5, 0x1b, 0x39,
  0x13, 0x98, 0x3a, 0x39, 0xe1, 0x57, 0x57, 0x39, 0xff, 0x26, 0x0a, 0x39,
  0x0d, 0x00, 0x00, 0x00, 0x73, 0x74, 0x64, 0x2e, 0x63, 0x6f, 0x6e, 0x73,
  0x74, 0x61, 0x6e, 0x74, 0x31, 0x00, 0x00, 0x00, 0x01, 0x00, 0x00, 0x00,
  0x06, 0x00, 0x00, 0x00, 0xaa, 0xfb, 0xff, 0xff, 0x00, 0x00, 0x00, 0x02,
  0x80, 0x00, 0x00, 0x00, 0x07, 0x00, 0x00, 0x00, 0x64, 0x00, 0x00, 0x00,
  0x04, 0x00, 0x00, 0x00, 0x44, 0xfc, 0xff, 0xff, 0x3c, 0x00, 0x00, 0x00,
  0x04, 0x00, 0x00, 0x00, 0x06, 0x00, 0x00, 0x00, 0x00, 0x00, 0x00, 0x00,
  0x00, 0x00, 0x00, 0x00, 0x00, 0x00, 0x00, 0x00, 0x00, 0x00, 0x00, 0x00,
  0x00, 0x00, 0x00, 0x00, 0x00, 0x00, 0x00, 0x00, 0x00, 0x00, 0x00, 0x00,
  0x00, 0x00, 0x00, 0x00, 0x00, 0x00, 0x00, 0x00, 0x00, 0x00, 0x00, 0x00,
  0x00, 0x00, 0x00, 0x00, 0x00, 0x00, 0x00, 0x00, 0x06, 0x00, 0x00, 0x00,
  0x42, 0x52, 0x0f, 0x38, 0x8c, 0xa5, 0xdb, 0x37, 0xa7, 0x16, 0x04, 0x38,
  0x56, 0xb5, 0xf0, 0x37, 0x22, 0xe5, 0x02, 0x38, 0x60, 0x5f, 0x09, 0x38,
  0x0c, 0x00, 0x00, 0x00, 0x73, 0x74, 0x64, 0x2e, 0x63, 0x6f, 0x6e, 0x73,
  0x74, 0x61, 0x6e, 0x74, 0x00, 0x00, 0x00, 0x00, 0x01, 0x00, 0x00, 0x00,
  0x06, 0x00, 0x00, 0x00, 0x3a, 0xfc, 0xff, 0xff, 0x00, 0x00, 0x00, 0x09,
  0xf4, 0x00, 0x00, 0x00, 0x06, 0x00, 0x00, 0x00, 0xa8, 0x00, 0x00, 0x00,
  0x04, 0x00, 0x00, 0x00, 0x2c, 0xfc, 0xff, 0xff, 0x80, 0x00, 0x00, 0x00,
  0x60, 0x00, 0x00, 0x00, 0x40, 0x00, 0x00, 0x00, 0x04, 0x00, 0x00, 0x00,
  0x06, 0x00, 0x00, 0x00, 0x00, 0x00, 0x00, 0x00, 0x00, 0x00, 0x00, 0x00,
  0x00, 0x00, 0x00, 0x00, 0x00, 0x00, 0x00, 0x00, 0x00, 0x00, 0x00, 0x00,
  0x00, 0x00, 0x00, 0x00, 0x00, 0x00, 0x00, 0x00, 0x00, 0x00, 0x00, 0x00,
  0x00, 0x00, 0x00, 0x00, 0x00, 0x00, 0x00, 0x00, 0x00, 0x00, 0x00, 0x00,
  0x00, 0x00, 0x00, 0x00, 0x00, 0x00, 0x00, 0x00, 0x06, 0x00, 0x00, 0x00,
  0x61, 0x4d, 0x3c, 0x3c, 0xbd, 0x27, 0x2d, 0x3c, 0x93, 0xc3, 0x24, 0x3c,
  0x6b, 0x86, 0x45, 0x3c, 0x5f, 0xf5, 0x63, 0x3c, 0xdc, 0x3e, 0x12, 0x3c,
  0x06, 0x00, 0x00, 0x00, 0xc6, 0xd4, 0xba, 0x3f, 0x6e, 0xcd, 0xab, 0x3f,
  0x0c, 0x7a, 0xa3, 0x3f, 0x06, 0x94, 0x8f, 0x3f, 0x39, 0xa8, 0x9e, 0x3f,
  0x5e, 0x1a, 0x91, 0x3f, 0x06, 0x00, 0x00, 0x00, 0x78, 0x62, 0xb4, 0xbf,
  0xc9, 0x00, 0xa7, 0xbf, 0x9a, 0xb7, 0xa2, 0xbf, 0x5e, 0xfb, 0xc3, 0xbf,
  0x74, 0x2d, 0xe2, 0xbf, 0x74, 0x3b, 0x27, 0xbf, 0x3e, 0x00, 0x00, 0x00,
  0x73, 0x65, 0x71, 0x75, 0x65, 0x6e, 0x74, 0x69, 0x61, 0x6c, 0x5f, 0x31,
  0x2f, 0x63, 0x6f, 0x6e, 0x76, 0x32, 0x64, 0x5f, 0x33, 0x2f, 0x43, 0x6f,
  0x6e, 0x76, 0x32, 0x44, 0x40, 0x5f, 0x5f, 0x69, 0x6e, 0x66, 0x65, 0x72,
  0x65, 0x6e, 0x63, 0x65, 0x5f, 0x5f, 0x77, 0x72, 0x61, 0x70, 0x70, 0x65,
  0x64, 0x5f, 0x6d, 0x6f, 0x64, 0x65, 0x6c, 0x5f, 0x31, 0x31, 0x39, 0x32,
  0x33, 0x34, 0x00, 0x00, 0x04, 0x00, 0x00, 0x00, 0x06, 0x00, 0x00, 0x00,
  0x03, 0x00, 0x00, 0x00, 0x03, 0x00, 0x00, 0x00, 0x06, 0x00, 0x00, 0x00,
  0x4a, 0xfd, 0xff, 0xff, 0x00, 0x00, 0x00, 0x09, 0xf4, 0x00, 0x00, 0x00,
  0x05, 0x00, 0x00, 0x00, 0xa8, 0x00, 0x00, 0x00, 0x04, 0x00, 0x00, 0x00,
  0x3c, 0xfd, 0xff, 0xff, 0x80, 0x00, 0x00, 0x00, 0x60, 0x00, 0x00, 0x00,
  0x40, 0x00, 0x00, 0x00, 0x04, 0x00, 0x00, 0x00, 0x06, 0x00, 0x00, 0x00,
  0x00, 0x00, 0x00, 0x00, 0x00, 0x00, 0x00, 0x00, 0x00, 0x00, 0x00, 0x00,
  0x00, 0x00, 0x00, 0x00, 0x00, 0x00, 0x00, 0x00, 0x00, 0x00, 0x00, 0x00,
  0x00, 0x00, 0x00, 0x00, 0x00, 0x00, 0x00, 0x00, 0x00, 0x00, 0x00, 0x00,
  0x00, 0x00, 0x00, 0x00, 0x00, 0x00, 0x00, 0x00, 0x00, 0x00, 0x00, 0x00,
  0x00, 0x00, 0x00, 0x00, 0x06, 0x00, 0x00, 0x00, 0xef, 0xc2, 0x0e, 0x3c,
  0xe6, 0xc9, 0xda, 0x3b, 0x90, 0x92, 0x03, 0x3c, 0xa0, 0xc4, 0xef, 0x3b,
  0x3c, 0x62, 0x02, 0x3c, 0x00, 0xd6, 0x08, 0x3c, 0x06, 0x00, 0x00, 0x00,
  0xf1, 0xb3, 0x4a, 0x3f, 0x52, 0x14, 0x59, 0x3f, 0xbd, 0xdb, 0x54, 0x3f,
  0x17, 0xe5, 0x6d, 0x3f, 0x78, 0x5d, 0x81, 0x3f, 0xae, 0x08, 0x5e, 0x3f,
  0x06, 0x00, 0x00, 0x00, 0x69, 0xa5, 0x8d, 0xbf, 0xc7, 0x2f, 0xf4, 0xbe,
  0x6b, 0x8b, 0x82, 0xbf, 0x24, 0xa3, 0x14, 0xbf, 0xd8, 0xb7, 0x22, 0xbf,
  0x54, 0xc4, 0x87, 0xbf, 0x3e, 0x00, 0x00, 0x00, 0x73, 0x65, 0x71, 0x75,
  0x65, 0x6e, 0x74, 0x69, 0x61, 0x6c, 0x5f, 0x31, 0x2f, 0x63, 0x6f, 0x6e,
  0x76, 0x32, 0x64, 0x5f, 0x32, 0x2f, 0x43, 0x6f, 0x6e, 0x76, 0x32, 0x44,
  0x40, 0x5f, 0x5f, 0x69, 0x6e, 0x66, 0x65, 0x72, 0x65, 0x6e, 0x63, 0x65,
  0x5f, 0x5f, 0x77, 0x72, 0x61, 0x70, 0x70, 0x65, 0x64, 0x5f, 0x6d, 0x6f,
  0x64, 0x65, 0x6c, 0x5f, 0x31, 0x31, 0x39, 0x32, 0x33, 0x34, 0x00, 0x00,
  0x04, 0x00, 0x00, 0x00, 0x06, 0x00, 0x00, 0x00, 0x03, 0x00, 0x00, 0x00,
  0x03, 0x00, 0x00, 0x00, 0x01, 0x00, 0x00, 0x00, 0x5a, 0xfe, 0xff, 0xff,
  0x00, 0x00, 0x00, 0x09, 0x8c, 0x00, 0x00, 0x00, 0x04, 0x00, 0x00, 0x00,
  0x40, 0x00, 0x00, 0x00, 0x04, 0x00, 0x00, 0x00, 0x4c, 0xfe, 0xff, 0xff,
  0x2c, 0x00, 0x00, 0x00, 0x20, 0x00, 0x00, 0x00, 0x14, 0x00, 0x00, 0x00,
  0x04, 0x00, 0x00, 0x00, 0x01, 0x00, 0x00, 0x00, 0x00, 0x00, 0x00, 0x00,
  0x00, 0x00, 0x00, 0x00, 0x01, 0x00, 0x00, 0x00, 0xfd, 0x66, 0x9d, 0x3c,
  0x01, 0x00, 0x00, 0x00, 0x7a, 0x30, 0xb2, 0x3f, 0x01, 0x00, 0x00, 0x00,
  0x2f, 0x2c, 0x1c, 0xc0, 0x3d, 0x00, 0x00, 0x00, 0x73, 0x65, 0x71, 0x75,
  0x65, 0x6e, 0x74, 0x69, 0x61, 0x6c, 0x5f, 0x31, 0x2f, 0x64, 0x65, 0x6e,
  0x73, 0x65, 0x5f, 0x31, 0x2f, 0x4d, 0x61, 0x74, 0x4d, 0x75, 0x6c, 0x40,
  0x5f, 0x5f, 0x69, 0x6e, 0x66, 0x65, 0x72, 0x65, 0x6e, 0x63, 0x65, 0x5f,
  0x5f, 0x77, 0x72, 0x61, 0x70, 0x70, 0x65, 0x64, 0x5f, 0x6d, 0x6f, 0x64,
  0x65, 0x6c, 0x5f, 0x31, 0x31, 0x39, 0x32, 0x33, 0x34, 0x00, 0x00, 0x00,
  0x02, 0x00, 0x00, 0x00, 0x0a, 0x00, 0x00, 0x00, 0xd6, 0x02, 0x00, 0x00,
  0xfa, 0xfe, 0xff, 0xff, 0x00, 0x00, 0x00, 0x02, 0x5c, 0x00, 0x00, 0x00,
  0x03, 0x00, 0x00, 0x00, 0x10, 0x00, 0x00, 0x00, 0x08, 0x00, 0x00, 0x00,
  0x04, 0x00, 0x04, 0x00, 0x04, 0x00, 0x00, 0x00, 0x3e, 0x00, 0x00, 0x00,
  0x73, 0x65, 0x71, 0x75, 0x65, 0x6e, 0x74, 0x69, 0x61, 0x6c, 0x5f, 0x31,
  0x2f, 0x66, 0x6c, 0x61, 0x74, 0x74, 0x65, 0x6e, 0x5f, 0x31, 0x2f, 0x43,
  0x6f, 0x6e, 0x73, 0x74, 0x40, 0x5f, 0x5f, 0x69, 0x6e, 0x66, 0x65, 0x72,
  0x65, 0x6e, 0x63, 0x65, 0x5f, 0x5f, 0x77, 0x72, 0x61, 0x70, 0x70, 0x65,
  0x64, 0x5f, 0x6d, 0x6f, 0x64, 0x65, 0x6c, 0x5f, 0x31, 0x31, 0x39, 0x32,
  0x33, 0x34, 0x00, 0x00, 0x01, 0x00, 0x00, 0x00, 0x02, 0x00, 0x00, 0x00,
  0x66, 0xff, 0xff, 0xff, 0x00, 0x00, 0x00, 0x02, 0x88, 0x00, 0x00, 0x00,
  0x02, 0x00, 0x00, 0x00, 0x38, 0x00, 0x00, 0x00, 0x10, 0x00, 0x00, 0x00,
  0x0c, 0x00, 0x0c, 0x00, 0x00, 0x00, 0x00, 0x00, 0x04, 0x00, 0x08, 0x00,
  0x0c, 0x00, 0x00, 0x00, 0x18, 0x00, 0x00, 0x00, 0x04, 0x00, 0x00, 0x00,
  0x01, 0x00, 0x00, 0x00, 0x00, 0x00, 0x00, 0x00, 0x00, 0x00, 0x00, 0x00,
  0x00, 0x00, 0x00, 0x00, 0x01, 0x00, 0x00, 0x00, 0x2f, 0x7b, 0x66, 0x3a,
  0x43, 0x00, 0x00, 0x00, 0x53, 0x74, 0x61, 0x74, 0x65, 0x66, 0x75, 0x6c,
  0x50, 0x61, 0x72, 0x74, 0x69, 0x74, 0x69, 0x6f, 0x6e, 0x65, 0x64, 0x43,
  0x61, 0x6c, 0x6c, 0x2f, 0x73, 0x65, 0x71, 0x75, 0x65, 0x6e, 0x74, 0x69,
  0x61, 0x6c, 0x5f, 0x31, 0x2f, 0x64, 0x65, 0x6e, 0x73, 0x65, 0x5f, 0x31,
  0x2f, 0x42, 0x69, 0x61, 0x73, 0x41, 0x64, 0x64, 0x2f, 0x52, 0x65, 0x61,
  0x64, 0x56, 0x61, 0x72, 0x69, 0x61, 0x62, 0x6c, 0x65, 0x4f, 0x70, 0x00,
  0x01, 0x00, 0x00, 0x00, 0x0a, 0x00, 0x00, 0x00, 0x00, 0x00, 0x0e, 0x00,
  0x18, 0x00, 0x08, 0x00, 0x07, 0x00, 0x0c, 0x00, 0x10, 0x00, 0x14, 0x00,
  0x0e, 0x00, 0x00, 0x00, 0x00, 0x00, 0x00, 0x09, 0x70, 0x00, 0x00, 0x00,
  0x01, 0x00, 0x00, 0x00, 0x50, 0x00, 0x00, 0x00, 0x10, 0x00, 0x00, 0x00,
  0x0c, 0x00, 0x14, 0x00, 0x04, 0x00, 0x08, 0x00, 0x0c, 0x00, 0x10, 0x00,
  0x0c, 0x00, 0x00, 0x00, 0x30, 0x00, 0x00, 0x00, 0x24, 0x00, 0x00, 0x00,
  0x18, 0x00, 0x00, 0x00, 0x04, 0x00, 0x00, 0x00, 0x01, 0x00, 0x00, 0x00,
  0x80, 0xff, 0xff, 0xff, 0xff, 0xff, 0xff, 0xff, 0x00, 0x00, 0x00, 0x00,
  0x01, 0x00, 0x00, 0x00, 0x81, 0x80, 0x80, 0x3b, 0x01, 0x00, 0x00, 0x00,
  0x00, 0x00, 0x80, 0x3f, 0x01, 0x00, 0x00, 0x00, 0x00, 0x00, 0x00, 0x00,
  0x13, 0x00, 0x00, 0x00, 0x63, 0x6f, 0x6e, 0x76, 0x32, 0x64, 0x5f, 0x32,
  0x5f, 0x69, 0x6e, 0x70, 0x75, 0x74, 0x5f, 0x69, 0x6e, 0x74, 0x38, 0x00,
  0x04, 0x00, 0x00, 0x00, 0x01, 0x00, 0x00, 0x00, 0x1c, 0x00, 0x00, 0x00,
  0x1c, 0x00, 0x00, 0x00, 0x01, 0x00, 0x00, 0x00, 0x07, 0x00, 0x00, 0x00,
  0x80, 0x00, 0x00, 0x00, 0x64, 0x00, 0x00, 0x00, 0x50, 0x00, 0x00, 0x00,
  0x38, 0x00, 0x00, 0x00, 0x28, 0x00, 0x00, 0x00, 0x1c, 0x00, 0x00, 0x00,
  0x04, 0x00, 0x00, 0x00, 0xbe, 0xff, 0xff, 0xff, 0x00, 0x00, 0x00, 0x06,
  0x02, 0x00, 0x00, 0x00, 0x00, 0x00, 0x06, 0x00, 0x08, 0x00, 0x07, 0x00,
  0x06, 0x00, 0x00, 0x00, 0x00, 0x00, 0x00, 0x72, 0xc2, 0xff, 0xff, 0xff,
  0x00, 0x00, 0x00, 0x19, 0x02, 0x00, 0x00, 0x00, 0xe6, 0xff, 0xff, 0xff,
  0x00, 0x00, 0x00, 0x09, 0x04, 0x00, 0x00, 0x00, 0x00, 0x00, 0x06, 0x00,
  0x06, 0x00, 0x05, 0x00, 0x06, 0x00, 0x00, 0x00, 0x00, 0x16, 0x0a, 0x00,
  0x0e, 0x00, 0x07, 0x00, 0x00, 0x00, 0x08, 0x00, 0x0a, 0x00, 0x00, 0x00,
  0x00, 0x00, 0x00, 0x11, 0x02, 0x00, 0x00, 0x00, 0x00, 0x00, 0x0a, 0x00,
  0x0c, 0x00, 0x07, 0x00, 0x00, 0x00, 0x08, 0x00, 0x0a, 0x00, 0x00, 0x00,
  0x00, 0x00, 0x00, 0x03, 0x03, 0x00, 0x00, 0x00
};
unsigned int model_data_tflite_len = 11264;
